{
  "version": "1.0",
  "truncation": {
    "direction": "Right",
    "max_length": 224,
    "strategy": "LongestFirst",
    "stride": 0
  },
  "padding": {
    "strategy": {
      "Fixed": 224
    },
    "direction": "Right",
    "pad_to_multiple_of": null,
    "pad_id": 0,
    "pad_type_id": 0,
    "pad_token": "[PAD]"
  },
  "added_tokens": [
    {
      "id": 0,
      "content": "[PAD]",
      "single_word": false,
      "lstrip": false,
      "rstrip": false,
      "normalized": false,
      "special": true
    },
    {
      "id": 1,
      "content": "[CLS]",
      "single_word": false,
      "lstrip": false,
      "rstrip": false,
      "normalized": false,
      "special": true
    },
    {
      "id": 2,
      "content": "[SEP]",
      "single_word": false,
      "lstrip": false,
      "rstrip": false,
      "normalized": false,
      "special": true
    },
    {
      "id": 3,
      "content": "[UNK]",
      "single_word": false,
      "lstrip": false,
      "rstrip": false,
      "normalized": false,
      "special": true
    },
    {
      "id": 4,
      "content": "[MASK]",
      "single_word": false,
      "lstrip": false,
      "rstrip": false,
      "normalized": false,
      "special": true
    }
  ],
  "normalizer": {
    "type": "Sequence",
    "normalizers": [
      {
        "type": "Replace",
        "pattern": {
          "Regex": "\\s{2,}|[\\n\\r\\t]"
        },
        "content": " "
      },
      {
        "type": "NFC"
      },
      {
        "type": "Strip",
        "strip_left": false,
        "strip_right": true
      }
    ]
  },
  "pre_tokenizer": {
    "type": "Sequence",
    "pretokenizers": [
      {
        "type": "Metaspace",
        "replacement": "▁",
        "prepend_scheme": "always",
        "split": true
      }
    ]
  },
  "post_processor": {
    "type": "TemplateProcessing",
    "single": [
      {
        "SpecialToken": {
          "id": "[CLS]",
          "type_id": 0
        }
      },
      {
        "Sequence": {
          "id": "A",
          "type_id": 0
        }
      },
      {
        "SpecialToken": {
          "id": "[SEP]",
          "type_id": 0
        }
      }
    ],
    "pair": [
      {
        "SpecialToken": {
          "id": "[CLS]",
          "type_id": 0
        }
      },
      {
        "Sequence": {
          "id": "A",
          "type_id": 0
        }
      },
      {
        "SpecialToken": {
          "id": "[SEP]",
          "type_id": 0
        }
      },
      {
        "Sequence": {
          "id": "B",
          "type_id": 1
        }
      },
      {
        "SpecialToken": {
          "id": "[SEP]",
          "type_id": 1
        }
      }
    ],
    "special_tokens": {
      "[CLS]": {
        "id": "[CLS]",
        "ids": [
          1
        ],
        "tokens": [
          "[CLS]"
        ]
      },
      "[SEP]": {
        "id": "[SEP]",
        "ids": [
          2
        ],
        "tokens": [
          "[SEP]"
        ]
      }
    }
  },
  "decoder": {
    "type": "Metaspace",
    "replacement": "▁",
    "prepend_scheme": "always",
    "split": true
  },
  "model": {
    "type": "Unigram",
    "unk_id": 3,
    "vocab": [
      [
        "[PAD]",
        0.0
      ],
      [
        "[CLS]",
        0.0
      ],
      [
        "[SEP]",
        0.0
      ],
      [
        "[UNK]",
        0.0
      ],
      [
        "[MASK]",
        0.0
      ],
      [
        "▁",
        -1.8622330586637863
      ],
      [
        ",",
        -3.250007935750279
      ],
      [
        ".",
        -3.631296547020185
      ],
      [
        "▁và",
        -4.6370653128889
      ],
      [
        "▁của",
        -4.665982482937675
      ],
      [
        "▁là",
        -4.8240217521496085
      ],
      [
        "▁có",
        -4.925343317415248
      ],
      [
        "▁không",
        -5.038220782629612
      ],
      [
        "-",
        -5.054074625772095
      ],
      [
        "▁các",
        -5.115876929443111
      ],
      [
        "▁được",
        -5.119943651385025
      ],
      [
        ":",
        -5.133394988369581
      ],
      [
        "▁cho",
        -5.136668987517297
      ],
      [
        "▁trong",
        -5.2110357357049075
      ],
      [
        "▁một",
        -5.290108064297861
      ],
      [
        "▁người",
        -5.386617504157467
      ],
      [
        "▁với",
        -5.425526640291459
      ],
      [
        "▁những",
        -5.483386863801421
      ],
      [
        "▁đã",
        -5.569102295143331
      ],
      [
        "▁để",
        -5.577436075150683
      ],
      [
        ")",
        -5.633474200546978
      ],
      [
        "▁này",
        -5.6894305890137815
      ],
      [
        "(",
        -5.695407291026939
      ],
      [
        "▁bạn",
        -5.732394876816311
      ],
      [
        "▁về",
        -5.784671210785884
      ],
      [
        "▁đến",
        -5.797349328753505
      ],
      [
        "/",
        -5.800118800592287
      ],
      [
        "ở",
        -5.82624035897765
      ],
      [
        "▁khi",
        -5.869636216462908
      ],
      [
        "▁cũng",
        -5.875556473733017
      ],
      [
        "▁...",
        -5.880866799635552
      ],
      [
        "▁sẽ",
        -5.91155577697943
      ],
      [
        "▁như",
        -5.93826942220722
      ],
      [
        "?",
        -5.944125856675765
      ],
      [
        "\"",
        -5.962873315515871
      ],
      [
        "▁vào",
        -5.981599239492628
      ],
      [
        "▁ra",
        -5.993865351606118
      ],
      [
        "”",
        -6.014527863369306
      ],
      [
        "“",
        -6.014747459059581
      ],
      [
        "▁lại",
        -6.015942593469816
      ],
      [
        "▁phải",
        -6.024210289899781
      ],
      [
        "▁đó",
        -6.035263297448676
      ],
      [
        "▁làm",
        -6.042710522525407
      ],
      [
        "▁nhiều",
        -6.046808255802574
      ],
      [
        "▁từ",
        -6.051978087616472
      ],
      [
        "▁trên",
        -6.056892547460514
      ],
      [
        "▁tại",
        -6.1376990630451225
      ],
      [
        "▁có_thể",
        -6.156708231636269
      ],
      [
        "▁đi",
        -6.159239793458163
      ],
      [
        "▁mà",
        -6.162115935527151
      ],
      [
        "▁thì",
        -6.1909824992982685
      ],
      [
        "▁năm",
        -6.1916035302359305
      ],
      [
        "▁nhất",
        -6.286537912248196
      ],
      [
        "▁T",
        -6.291312945847952
      ],
      [
        "▁nhà",
        -6.308235867655153
      ],
      [
        "▁ngày",
        -6.335446456392749
      ],
      [
        "▁hơn",
        -6.372855385698788
      ],
      [
        "▁mình",
        -6.375316063308087
      ],
      [
        "▁1",
        -6.379817199446546
      ],
      [
        "▁còn",
        -6.395196014995051
      ],
      [
        "▁mới",
        -6.405809500909655
      ],
      [
        "▁nói",
        -6.415851898385817
      ],
      [
        "▁chỉ",
        -6.4218672004487445
      ],
      [
        "▁bị",
        -6.42574531201554
      ],
      [
        "▁tôi",
        -6.430451982027453
      ],
      [
        "▁sau",
        -6.4537834491369725
      ],
      [
        "▁rất",
        -6.460830308487125
      ],
      [
        "–",
        -6.469631526296217
      ],
      [
        "!",
        -6.487246497751261
      ],
      [
        "▁nhưng",
        -6.541927771027256
      ],
      [
        "▁theo",
        -6.544858487514755
      ],
      [
        "▁sự",
        -6.55921511736209
      ],
      [
        "▁biết",
        -6.564623858534343
      ],
      [
        "▁2",
        -6.567158885956028
      ],
      [
        "▁gì",
        -6.573812779124342
      ],
      [
        "▁Việt_Nam",
        -6.598912782182438
      ],
      [
        "▁nên",
        -6.604084578540107
      ],
      [
        "▁đang",
        -6.614987191623406
      ],
      [
        "▁việc",
        -6.627387697342014
      ],
      [
        "▁khác",
        -6.629240832392632
      ],
      [
        "▁lên",
        -6.645674280807146
      ],
      [
        "▁anh",
        -6.657901928510126
      ],
      [
        "▁đây",
        -6.673920631256795
      ],
      [
        "▁nước",
        -6.747683473648882
      ],
      [
        "▁hay",
        -6.753799084805086
      ],
      [
        "▁cần",
        -6.755968910516632
      ],
      [
        "▁trước",
        -6.7784865394838025
      ],
      [
        "▁3",
        -6.784275410431089
      ],
      [
        "▁sử_dụng",
        -6.799075835190157
      ],
      [
        "▁cô",
        -6.834907845198215
      ],
      [
        "▁con",
        -6.836192929037908
      ],
      [
        "n",
        -6.85633032910337
      ],
      [
        "▁thấy",
        -6.8788392952644735
      ],
      [
        "▁cao",
        -6.892211399279612
      ],
      [
        "▁hoặc",
        -6.894730198139799
      ],
      [
        "▁tốt",
        -6.916160736377561
      ],
      [
        "▁nào",
        -6.928530876774241
      ],
      [
        "▁tới",
        -6.939752013267054
      ],
      [
        "m",
        -6.949899174066481
      ],
      [
        "▁qua",
        -6.956626487360706
      ],
      [
        "▁ông",
        -6.960719585064602
      ],
      [
        "▁rồi",
        -6.967111447251813
      ],
      [
        "▁cái",
        -6.97185083087259
      ],
      [
        "▁cùng",
        -6.972395791916581
      ],
      [
        "▁hai",
        -6.978683118751027
      ],
      [
        "▁vì",
        -6.982416004816237
      ],
      [
        "▁tháng",
        -6.984673994101481
      ],
      [
        "▁cách",
        -6.997318175264949
      ],
      [
        "▁hàng",
        -7.0044329534081236
      ],
      [
        "▁bằng",
        -7.016819908129644
      ],
      [
        "▁ta",
        -7.0241853358875055
      ],
      [
        "▁vẫn",
        -7.028409060375649
      ],
      [
        "▁C",
        -7.040346329600034
      ],
      [
        ";",
        -7.044784034856798
      ],
      [
        "▁cả",
        -7.049774852623955
      ],
      [
        "▁họ",
        -7.061512957938664
      ],
      [
        "▁muốn",
        -7.0742551126150115
      ],
      [
        "▁Các",
        -7.089146827246102
      ],
      [
        "▁giúp",
        -7.090812273377368
      ],
      [
        "▁nó",
        -7.107896711976451
      ],
      [
        "▁em",
        -7.129549634845205
      ],
      [
        "▁chính",
        -7.137746216816076
      ],
      [
        "▁lần",
        -7.158839275000689
      ],
      [
        "t",
        -7.159362091674916
      ],
      [
        "▁4",
        -7.16014602406554
      ],
      [
        "▁đều",
        -7.170955524593621
      ],
      [
        "▁5",
        -7.176803238674282
      ],
      [
        "▁bên",
        -7.182060806062653
      ],
      [
        "_",
        -7.182389464478925
      ],
      [
        "▁lớn",
        -7.190726794716895
      ],
      [
        "▁số",
        -7.192832855181701
      ],
      [
        "▁chưa",
        -7.203250105422667
      ],
      [
        "▁đường",
        -7.205821043516149
      ],
      [
        "▁đầu",
        -7.215536467985306
      ],
      [
        "▁điều",
        -7.216517861508986
      ],
      [
        "▁nhìn",
        -7.21900972198765
      ],
      [
        "▁10",
        -7.220545102959578
      ],
      [
        "▁dùng",
        -7.221722954415606
      ],
      [
        "▁giá",
        -7.231866219559235
      ],
      [
        "▁do",
        -7.233231090285093
      ],
      [
        "▁loại",
        -7.23373585411359
      ],
      [
        "▁xe",
        -7.2368507606538675
      ],
      [
        "▁bài",
        -7.237888697722219
      ],
      [
        "▁viết",
        -7.248188689469696
      ],
      [
        "▁nhau",
        -7.260433072149274
      ],
      [
        "▁ăn",
        -7.268468956264332
      ],
      [
        "▁rằng",
        -7.274893042093057
      ],
      [
        "▁sản_phẩm",
        -7.287546846735541
      ],
      [
        "▁mọi",
        -7.29848710222166
      ],
      [
        "▁nếu",
        -7.30760557196818
      ],
      [
        "▁2018",
        -7.312154748981992
      ],
      [
        "i",
        -7.316088141978243
      ],
      [
        "▁lúc",
        -7.317977893572449
      ],
      [
        "c",
        -7.319535467615889
      ],
      [
        "▁thêm",
        -7.320160713484018
      ],
      [
        "▁Những",
        -7.320264433326379
      ],
      [
        "▁mang",
        -7.320595075960048
      ],
      [
        "▁thời_gian",
        -7.343515072059429
      ],
      [
        "▁B",
        -7.350741179231664
      ],
      [
        "▁Hà_Nội",
        -7.351840593819423
      ],
      [
        "▁quá",
        -7.36067017980041
      ],
      [
        "▁thứ",
        -7.363007545348415
      ],
      [
        "▁Bạn",
        -7.363256371099919
      ],
      [
        "▁thông_tin",
        -7.366164188363886
      ],
      [
        "▁vừa",
        -7.373956980408689
      ],
      [
        "▁da",
        -7.37409882141406
      ],
      [
        "▁xem",
        -7.376248493337545
      ],
      [
        "▁Trong",
        -7.377322193114107
      ],
      [
        "▁tiền",
        -7.386795214514585
      ],
      [
        "▁Anh",
        -7.392470937753812
      ],
      [
        "▁Đ",
        -7.422825761370083
      ],
      [
        "chúng_tôi",
        -7.428870503041042
      ],
      [
        "▁học",
        -7.429179614713492
      ],
      [
        "▁phát_triển",
        -7.429788278961967
      ],
      [
        "▁hoạt_động",
        -7.4411312751819505
      ],
      [
        "▁mua",
        -7.451522534383312
      ],
      [
        "▁Tôi",
        -7.458801090550141
      ],
      [
        "▁nữa",
        -7.459976227410632
      ],
      [
        "▁thực_hiện",
        -7.462475683475549
      ],
      [
        "▁nơi",
        -7.463497534143842
      ],
      [
        "▁phòng",
        -7.468031897700747
      ],
      [
        "%",
        -7.469446445671272
      ],
      [
        "▁ngay",
        -7.48086988791394
      ],
      [
        "▁đẹp",
        -7.480883967584356
      ],
      [
        "▁bệnh",
        -7.487511029937377
      ],
      [
        "▁bán",
        -7.488292259293683
      ],
      [
        "▁6",
        -7.496514521444739
      ],
      [
        "▁nhận",
        -7.506409019578635
      ],
      [
        "▁Không",
        -7.510415414128497
      ],
      [
        "▁nhỏ",
        -7.523716472589756
      ],
      [
        "▁Nếu",
        -7.531722490495595
      ],
      [
        "▁tay",
        -7.533995123718235
      ],
      [
        "▁hắn",
        -7.534082436852977
      ],
      [
        "▁ấy",
        -7.537343319713187
      ],
      [
        "a",
        -7.543330430603461
      ],
      [
        "chúng_ta",
        -7.543812039328364
      ],
      [
        "▁tổ_chức",
        -7.556978769305948
      ],
      [
        "▁gây",
        -7.56296089717936
      ],
      [
        "▁luôn",
        -7.565321826614696
      ],
      [
        "▁tạo",
        -7.575248028451634
      ],
      [
        "▁tin",
        -7.57656854526588
      ],
      [
        "▁đưa",
        -7.577249395412359
      ],
      [
        "▁từng",
        -7.578112272715977
      ],
      [
        "▁ai",
        -7.57814498409896
      ],
      [
        "▁Mỹ",
        -7.582421617143863
      ],
      [
        "▁đầu_tư",
        -7.584515885037241
      ],
      [
        "▁7",
        -7.589911296205413
      ],
      [
        "▁tuổi",
        -7.591181562877482
      ],
      [
        "▁gần",
        -7.59628561697496
      ],
      [
        "▁tiếng",
        -7.596872428325318
      ],
      [
        "▁bởi",
        -7.600698804821278
      ],
      [
        "▁khiến",
        -7.60534673173402
      ],
      [
        "▁tìm",
        -7.619764918830878
      ],
      [
        "▁Bộ",
        -7.6205367398589186
      ],
      [
        "▁mỗi",
        -7.639688295509426
      ],
      [
        "▁mặt",
        -7.652166954001199
      ],
      [
        "▁trẻ",
        -7.6553948713763855
      ],
      [
        "▁xây_dựng",
        -7.658253277008102
      ],
      [
        "▁đúng",
        -7.658858500690034
      ],
      [
        "▁tăng",
        -7.664682396625427
      ],
      [
        "▁V",
        -7.664748369304752
      ],
      [
        "▁sao",
        -7.665878842195982
      ],
      [
        "▁tên",
        -7.666332758098138
      ],
      [
        "▁khách_hàng",
        -7.668732047556828
      ],
      [
        "▁Có",
        -7.670243765358817
      ],
      [
        "▁dưới",
        -7.672984097633988
      ],
      [
        "▁cấp",
        -7.673492532117734
      ],
      [
        "▁hiệu_quả",
        -7.675950192714536
      ],
      [
        "▁thế",
        -7.67889312194659
      ],
      [
        "▁tỉnh",
        -7.680830331510483
      ],
      [
        "▁câu",
        -7.684550343288786
      ],
      [
        "▁sống",
        -7.685137295816041
      ],
      [
        "▁Người",
        -7.687793406037844
      ],
      [
        "▁Một",
        -7.696076957666886
      ],
      [
        "▁ngoài",
        -7.696441343769319
      ],
      [
        "đối_với",
        -7.696647879749676
      ],
      [
        "▁gặp",
        -7.696994026460523
      ],
      [
        "▁không_thể",
        -7.701451944028445
      ],
      [
        "▁giảm",
        -7.724925875905912
      ],
      [
        "▁lấy",
        -7.733268530389997
      ],
      [
        "▁hỏi",
        -7.738093433663643
      ],
      [
        "▁12",
        -7.74034489552384
      ],
      [
        "▁thật",
        -7.741699731310943
      ],
      [
        "▁thế_giới",
        -7.743019936151711
      ],
      [
        "▁mất",
        -7.743295976805026
      ],
      [
        "▁thường",
        -7.745007175366384
      ],
      [
        "▁đồng",
        -7.745015324090112
      ],
      [
        "▁giữa",
        -7.747795550893386
      ],
      [
        "▁gia_đình",
        -7.75209113270645
      ],
      [
        "▁công_ty",
        -7.753696535241897
      ],
      [
        "▁dịch_vụ",
        -7.756601154830156
      ],
      [
        "▁doanh_nghiệp",
        -7.759757328885511
      ],
      [
        "▁bộ",
        -7.765991371075765
      ],
      [
        "▁mẹ",
        -7.7668129101622
      ],
      [
        "▁mắt",
        -7.767746708919436
      ],
      [
        "▁Điều",
        -7.771203763497386
      ],
      [
        "▁thiết_kế",
        -7.772080636902439
      ],
      [
        "▁chiếc",
        -7.778321148510146
      ],
      [
        "▁8",
        -7.778397589014007
      ],
      [
        "▁đâu",
        -7.779882674795781
      ],
      [
        "▁Nhưng",
        -7.780287299478864
      ],
      [
        "▁N",
        -7.809000231421404
      ],
      [
        "▁M",
        -7.811229965045609
      ],
      [
        "▁điểm",
        -7.8117460129791105
      ],
      [
        "▁Khi",
        -7.812692208757923
      ],
      [
        "▁bé",
        -7.824999614834434
      ],
      [
        "▁chất_lượng",
        -7.826616772060721
      ],
      [
        "▁xuống",
        -7.83014468090326
      ],
      [
        "▁nhanh",
        -7.83125866016902
      ],
      [
        "_nay",
        -7.833842939579347
      ],
      [
        "▁Sau",
        -7.83542072307354
      ],
      [
        "▁trường",
        -7.840971083504503
      ],
      [
        "▁vấn_đề",
        -7.844204491040621
      ],
      [
        "▁chuyện",
        -7.845626709246179
      ],
      [
        "▁tất_cả",
        -7.848006567055526
      ],
      [
        "▁một_số",
        -7.848319685397945
      ],
      [
        "▁đất",
        -7.85025801965979
      ],
      [
        "dự_án",
        -7.854795842415836
      ],
      [
        "▁2017",
        -7.8588624295122465
      ],
      [
        "▁nàng",
        -7.860237841237074
      ],
      [
        "▁phần",
        -7.865911512179224
      ],
      [
        "▁lời",
        -7.8689979032125965
      ],
      [
        "▁chị",
        -7.87213829837825
      ],
      [
        "▁xã_hội",
        -7.876268809663248
      ],
      [
        "▁dân",
        -7.878169473968955
      ],
      [
        "▁Bài",
        -7.881327797700523
      ],
      [
        "▁thị_trường",
        -7.887026669775901
      ],
      [
        "▁b",
        -7.888248369585055
      ],
      [
        "▁thành",
        -7.889181239734405
      ],
      [
        "▁hãy",
        -7.89447053116657
      ],
      [
        "thế_nào",
        -7.89525580233988
      ],
      [
        "▁giờ",
        -7.896938335894475
      ],
      [
        "▁cuộc",
        -7.900108931770307
      ],
      [
        "▁11",
        -7.904076482357947
      ],
      [
        "▁thi",
        -7.904156284157565
      ],
      [
        "▁máy",
        -7.905373824469951
      ],
      [
        "▁gọi",
        -7.90725333711584
      ],
      [
        "▁quy_định",
        -7.907938313532755
      ],
      [
        "▁nghe",
        -7.908279187564791
      ],
      [
        "▁hết",
        -7.910835669335517
      ],
      [
        "▁S",
        -7.911037547685321
      ],
      [
        "làm_việc",
        -7.916290686678899
      ],
      [
        "▁liên_quan",
        -7.916638841854063
      ],
      [
        "▁H",
        -7.930724892796086
      ],
      [
        "▁9",
        -7.940940487060143
      ],
      [
        "▁triệu",
        -7.941321239058347
      ],
      [
        "+",
        -7.942504438204665
      ],
      [
        "▁phía",
        -7.944193705851397
      ],
      [
        "▁D",
        -7.946538745170553
      ],
      [
        "▁bà",
        -7.947799684656484
      ],
      [
        "▁K",
        -7.948061002905916
      ],
      [
        "▁màu",
        -7.948099104165278
      ],
      [
        "▁khoảng",
        -7.952014161870537
      ],
      [
        "'",
        -7.955822304325999
      ],
      [
        "▁tự",
        -7.957113952173854
      ],
      [
        "▁sản_xuất",
        -7.95809189681604
      ],
      [
        "▁đặc_biệt",
        -7.9599273944446285
      ],
      [
        "▁quản_lý",
        -7.960092945305865
      ],
      [
        "▁sáng",
        -7.9613780993034045
      ],
      [
        "▁nghĩ",
        -7.968042841118288
      ],
      [
        "▁du_lịch",
        -7.968126614143911
      ],
      [
        "▁đặt",
        -7.97237777247688
      ],
      [
        "▁hiểu",
        -7.97273664812508
      ],
      [
        "▁thuốc",
        -7.97416732692891
      ],
      [
        "▁kinh_doanh",
        -7.975256498591564
      ],
      [
        "▁hệ_thống",
        -7.978011977405982
      ],
      [
        "▁chết",
        -7.97882857945409
      ],
      [
        "▁tính",
        -7.978990130149343
      ],
      [
        "▁vậy",
        -7.980050254909248
      ],
      [
        "▁khả_năng",
        -7.980258541467652
      ],
      [
        "▁Trung_Quốc",
        -7.987757368822992
      ],
      [
        "▁thuộc",
        -7.990990997158761
      ],
      [
        "▁ba",
        -8.000664875617991
      ],
      [
        "▁Với",
        -8.001805527832268
      ],
      [
        "▁chọn",
        -8.003385166854734
      ],
      [
        "▁Theo",
        -8.006595254622908
      ],
      [
        "&",
        -8.010898976122862
      ],
      [
        "▁yêu",
        -8.02621822724284
      ],
      [
        "▁v",
        -8.030504941980523
      ],
      [
        "h",
        -8.031825166638686
      ],
      [
        "▁nay",
        -8.036714478397368
      ],
      [
        "▁mức",
        -8.037803198131668
      ],
      [
        "▁cung_cấp",
        -8.041860408698007
      ],
      [
        "▁hỗ_trợ",
        -8.04204904667599
      ],
      [
        "▁L",
        -8.046392615727148
      ],
      [
        "▁đủ",
        -8.048377580344422
      ],
      [
        "▁chống",
        -8.051318012247473
      ],
      [
        "▁gửi",
        -8.05347127673679
      ],
      [
        "▁lòng",
        -8.056142271063608
      ],
      [
        "▁kinh_tế",
        -8.05917246333517
      ],
      [
        "y",
        -8.061918826013946
      ],
      [
        "▁chúng",
        -8.064612552813145
      ],
      [
        "▁rõ",
        -8.066012477265062
      ],
      [
        "▁Việt",
        -8.0767589099751
      ],
      [
        "▁khá",
        -8.076957537587141
      ],
      [
        "▁hôm",
        -8.079066038294126
      ],
      [
        "▁cậu",
        -8.080851149021766
      ],
      [
        "▁khu",
        -8.081098538883063
      ],
      [
        "▁khỏi",
        -8.089943599426633
      ],
      [
        "▁20",
        -8.09439686189568
      ],
      [
        "o",
        -8.094813435420441
      ],
      [
        "▁xin",
        -8.095949590021585
      ],
      [
        "▁nội_dung",
        -8.100019649595879
      ],
      [
        "▁ngươi",
        -8.103923538389006
      ],
      [
        "▁thôi",
        -8.11042424757298
      ],
      [
        "▁trang",
        -8.11846490151829
      ],
      [
        "▁nguồn",
        -8.119372794108617
      ],
      [
        "▁quan_trọng",
        -8.12639997441087
      ],
      [
        "▁độ",
        -8.130596373910008
      ],
      [
        "▁ngành",
        -8.131542205936883
      ],
      [
        "▁thích",
        -8.133573172730374
      ],
      [
        "▁Để",
        -8.135584911572035
      ],
      [
        "▁bỏ",
        -8.138142787264991
      ],
      [
        "▁đạt",
        -8.138201794194346
      ],
      [
        "▁lựa_chọn",
        -8.138252629762071
      ],
      [
        "▁bước",
        -8.141817941519616
      ],
      [
        "▁an_toàn",
        -8.147253469248318
      ],
      [
        "▁cười",
        -8.148676005963894
      ],
      [
        "▁Từ",
        -8.152409285352052
      ],
      [
        "▁như_vậy",
        -8.152744119974843
      ],
      [
        "▁Đây",
        -8.153009891534735
      ],
      [
        "▁vốn",
        -8.154549139833819
      ],
      [
        "▁cây",
        -8.157493537180507
      ],
      [
        "g",
        -8.158594455869986
      ],
      [
        "▁đầu_tiên",
        -8.164964480699224
      ],
      [
        "▁chân",
        -8.166050639887006
      ],
      [
        "▁thành_phố",
        -8.16608909688133
      ],
      [
        "▁Tuy_nhiên",
        -8.166135254566655
      ],
      [
        "▁vùng",
        -8.166662478227012
      ],
      [
        "▁dành",
        -8.167130049321438
      ],
      [
        "▁khó",
        -8.170492896249355
      ],
      [
        "▁Công_ty",
        -8.173924903755713
      ],
      [
        "▁yêu_cầu",
        -8.175138856587816
      ],
      [
        "▁càng",
        -8.17549126966236
      ],
      [
        "▁tham_gia",
        -8.17946544572061
      ],
      [
        "▁Ông",
        -8.179929849535625
      ],
      [
        "▁chương_trình",
        -8.181425962089607
      ],
      [
        "▁chẳng",
        -8.182197143018788
      ],
      [
        "_phí",
        -8.182388211776997
      ],
      [
        "▁thay_đổi",
        -8.182589446256463
      ],
      [
        "▁giữ",
        -8.183289287832867
      ],
      [
        "▁nhé",
        -8.191101671560125
      ],
      [
        "▁đứng",
        -8.191219833614564
      ],
      [
        "▁chủ",
        -8.191223764982006
      ],
      [
        "▁phù_hợp",
        -8.19214464024224
      ],
      [
        "▁công_nghệ",
        -8.194000475166629
      ],
      [
        "▁thuê",
        -8.199423704492013
      ],
      [
        "*",
        -8.209071380010284
      ],
      [
        "▁dễ",
        -8.209773448353692
      ],
      [
        "▁rẻ",
        -8.219442168026248
      ],
      [
        "▁s",
        -8.220075486635999
      ],
      [
        "▁giống",
        -8.220524615818817
      ],
      [
        "]",
        -8.22670022491758
      ],
      [
        "▁chạy",
        -8.23134280500577
      ],
      [
        "[",
        -8.232614304388168
      ],
      [
        "▁quyền",
        -8.2336426813826
      ],
      [
        "▁biển",
        -8.240047605875484
      ],
      [
        "▁đôi",
        -8.240983439392798
      ],
      [
        "▁ít",
        -8.242229979427577
      ],
      [
        "▁tỷ",
        -8.244781766551931
      ],
      [
        "▁lớp",
        -8.247435904558262
      ],
      [
        "▁Và",
        -8.249033284063037
      ],
      [
        "▁sang",
        -8.252539864490405
      ],
      [
        "▁30",
        -8.253212115030616
      ],
      [
        "▁khu_vực",
        -8.25415420024576
      ],
      [
        "▁món",
        -8.254597391641703
      ],
      [
        "▁15",
        -8.25563183397857
      ],
      [
        "▁đánh",
        -8.256941852583353
      ],
      [
        "▁nằm",
        -8.258133476343113
      ],
      [
        "▁trở_thành",
        -8.262548090210915
      ],
      [
        "▁kia",
        -8.266938510009897
      ],
      [
        "▁đọc",
        -8.27142725014584
      ],
      [
        "▁điện_thoại",
        -8.271632852388406
      ],
      [
        "▁Cho",
        -8.272384033622474
      ],
      [
        "▁kể",
        -8.274660126893068
      ],
      [
        "▁hoàn_toàn",
        -8.279539432553765
      ],
      [
        "u",
        -8.283050199110555
      ],
      [
        "▁bắt",
        -8.283325905206953
      ],
      [
        "▁ngủ",
        -8.28403595234429
      ],
      [
        "▁mạng",
        -8.285236211455304
      ],
      [
        "▁kết_quả",
        -8.28548803961445
      ],
      [
        "▁Ngày",
        -8.285926056222845
      ],
      [
        "▁Cách",
        -8.285934427262802
      ],
      [
        "▁khách",
        -8.28932784990375
      ],
      [
        "▁tiếp_tục",
        -8.289532975156149
      ],
      [
        "▁nghiên_cứu",
        -8.292710203081143
      ],
      [
        "▁bắt_đầu",
        -8.294357133399615
      ],
      [
        "▁bảo_vệ",
        -8.295991266790063
      ],
      [
        "▁Chỉ",
        -8.301642546695653
      ],
      [
        "▁điều_trị",
        -8.303655536357077
      ],
      [
        "▁thiết_bị",
        -8.306464056194473
      ],
      [
        "▁cơ_quan",
        -8.307117339464048
      ],
      [
        "▁đăng_ký",
        -8.307948929931467
      ],
      [
        "▁quyết_định",
        -8.308829614427433
      ],
      [
        "▁2016",
        -8.309175220312069
      ],
      [
        "▁một_cách",
        -8.30920719646548
      ],
      [
        "▁so",
        -8.311512723074024
      ],
      [
        "s",
        -8.315085803813744
      ],
      [
        "▁chịu",
        -8.317216278671692
      ],
      [
        "▁công_việc",
        -8.319426203223188
      ],
      [
        "▁sức_khỏe",
        -8.324495514108067
      ],
      [
        "▁gái",
        -8.324581370702186
      ],
      [
        "▁đánh_giá",
        -8.326597465194912
      ],
      [
        "▁sinh",
        -8.327647828059938
      ],
      [
        "▁mở",
        -8.331798486485651
      ],
      [
        "▁Cô",
        -8.334056008943632
      ],
      [
        "▁uống",
        -8.334558060553356
      ],
      [
        "▁lâu",
        -8.336213837646074
      ],
      [
        "▁ảnh",
        -8.337332049483233
      ],
      [
        "▁nâng",
        -8.34137251237815
      ],
      [
        "▁cuộc_sống",
        -8.341929044677034
      ],
      [
        "▁chung",
        -8.343297108739787
      ],
      [
        "▁tuần",
        -8.343537846649001
      ],
      [
        "▁chia_sẻ",
        -8.345161079302688
      ],
      [
        "▁chơi",
        -8.3456945482964
      ],
      [
        "▁Hãy",
        -8.346153145626095
      ],
      [
        "▁A",
        -8.352604058798038
      ],
      [
        "▁Thông_tin",
        -8.35285802240413
      ],
      [
        "▁mấy",
        -8.354439440238693
      ],
      [
        "▁chỗ",
        -8.355730244359535
      ],
      [
        "▁quá_trình",
        -8.356113804886274
      ],
      [
        "▁đáng",
        -8.35791500499676
      ],
      [
        "▁quốc_tế",
        -8.358379392012035
      ],
      [
        "▁chứ",
        -8.358848026955421
      ],
      [
        "▁ngồi",
        -8.361098773127067
      ],
      [
        "▁đồ",
        -8.363792704456896
      ],
      [
        "▁dài",
        -8.364469542526686
      ],
      [
        "▁thành_công",
        -8.366162160045048
      ],
      [
        "▁trắng",
        -8.367483528190133
      ],
      [
        "▁trường_hợp",
        -8.368218511541622
      ],
      [
        "▁điện",
        -8.370527728137148
      ],
      [
        "▁cơ_sở",
        -8.370627807986985
      ],
      [
        "hiện_nay",
        -8.37453585930468
      ],
      [
        "▁cứ",
        -8.375321556333976
      ],
      [
        "▁ảnh_hưởng",
        -8.378830254488355
      ],
      [
        "▁vàng",
        -8.378900534992166
      ],
      [
        "▁cạnh",
        -8.383732016561998
      ],
      [
        "▁hoa",
        -8.386582001870817
      ],
      [
        "▁dòng",
        -8.387406451134689
      ],
      [
        "▁phụ_nữ",
        -8.38834844379816
      ],
      [
        "▁nền",
        -8.38982116025309
      ],
      [
        "▁tư_vấn",
        -8.390661516525228
      ],
      [
        "▁trách_nhiệm",
        -8.395387996864605
      ],
      [
        "▁cá_nhân",
        -8.39798265806548
      ],
      [
        "▁công_tác",
        -8.39987323431737
      ],
      [
        "▁nhu_cầu",
        -8.400111421305422
      ],
      [
        "▁mùa",
        -8.401043666215505
      ],
      [
        "▁thu",
        -8.40163918078764
      ],
      [
        "▁thành_viên",
        -8.402424070972272
      ],
      [
        "▁Nhà",
        -8.40405075659626
      ],
      [
        "▁quan_tâm",
        -8.404255821458833
      ],
      [
        "▁quốc_gia",
        -8.405504957455078
      ],
      [
        "▁xa",
        -8.40569189067756
      ],
      [
        "▁môi_trường",
        -8.407692732717948
      ],
      [
        "▁đau",
        -8.407738288649783
      ],
      [
        "▁Tin",
        -8.409044073638183
      ],
      [
        "▁vụ",
        -8.41494290887998
      ],
      [
        "▁vị",
        -8.415829133344522
      ],
      [
        "xảy",
        -8.418179072557338
      ],
      [
        "▁nhóm",
        -8.418403824934805
      ],
      [
        "▁trả_lời",
        -8.418713418144845
      ],
      [
        "▁đơn_giản",
        -8.41913583598373
      ],
      [
        "▁riêng",
        -8.420747532022867
      ],
      [
        "▁kiểm_tra",
        -8.4215124311937
      ],
      [
        "_chuyện",
        -8.422312763795064
      ],
      [
        "▁hướng",
        -8.425086318102405
      ],
      [
        "con_người",
        -8.426193957272373
      ],
      [
        "▁đảm_bảo",
        -8.430413703023818
      ],
      [
        "▁trực_tiếp",
        -8.432586337119815
      ],
      [
        "▁điện_tử",
        -8.433529088803379
      ],
      [
        "▁mẫu",
        -8.436951733772723
      ],
      [
        "▁trả",
        -8.439277130970499
      ],
      [
        "▁xử_lý",
        -8.443042681316493
      ],
      [
        "_viên",
        -8.443759178315513
      ],
      [
        "▁cơ_thể",
        -8.44565521744983
      ],
      [
        "▁thiếu",
        -8.448687170837479
      ],
      [
        "▁Hồ_Chí_Minh",
        -8.449027750035086
      ],
      [
        "▁nhớ",
        -8.44985798738333
      ],
      [
        "▁đem",
        -8.451677142172183
      ],
      [
        "▁sớm",
        -8.453406611337176
      ],
      [
        "▁điều_kiện",
        -8.459905613248434
      ],
      [
        "▁tránh",
        -8.46692997370755
      ],
      [
        "▁chất",
        -8.46693607807091
      ],
      [
        "▁website",
        -8.468087399297
      ],
      [
        "p",
        -8.469620415789157
      ],
      [
        "▁lao_động",
        -8.473491067330219
      ],
      [
        "▁Xem",
        -8.474876664073017
      ],
      [
        "▁xuất_hiện",
        -8.477305377486072
      ],
      [
        "▁giá_trị",
        -8.477824767185657
      ],
      [
        "▁cửa",
        -8.478932466951184
      ],
      [
        "▁P",
        -8.485455317807451
      ],
      [
        "▁phút",
        -8.488275926790635
      ],
      [
        "▁phim",
        -8.490688432216361
      ],
      [
        "▁chuyển",
        -8.494780046186333
      ],
      [
        "▁2015",
        -8.495618555164238
      ],
      [
        "▁cảm_thấy",
        -8.497273390798414
      ],
      [
        "▁nhằm",
        -8.499878450023552
      ],
      [
        "▁nữ",
        -8.500633333813353
      ],
      [
        "▁phép",
        -8.501529742068552
      ],
      [
        "▁đầy",
        -8.502830628053186
      ],
      [
        "▁vị_trí",
        -8.504517722223426
      ],
      [
        "▁báo",
        -8.504813565145291
      ],
      [
        "▁quan_hệ",
        -8.50491375237226
      ],
      [
        "»",
        -8.505561046741065
      ],
      [
        "▁vòng",
        -8.511757363440768
      ],
      [
        "tài_khoản",
        -8.512136017604824
      ],
      [
        "▁Pháp",
        -8.512214994959558
      ],
      [
        "▁Em",
        -8.513132130971325
      ],
      [
        "▁khóa",
        -8.514747812706428
      ],
      [
        "▁Quận",
        -8.51821625514124
      ],
      [
        "▁kinh_nghiệm",
        -8.520896064661102
      ],
      [
        "▁bàn",
        -8.52301127471958
      ],
      [
        "▁Làm",
        -8.52452723297764
      ],
      [
        "▁hình_ảnh",
        -8.526858437742566
      ],
      [
        "▁mạnh",
        -8.527552812914141
      ],
      [
        "▁giấy",
        -8.532770419650959
      ],
      [
        "▁liền",
        -8.534655954212322
      ],
      [
        "▁máy_bay",
        -8.536212564417363
      ],
      [
        "▁cuối",
        -8.536452111814173
      ],
      [
        "▁hiện_đại",
        -8.537172432303661
      ],
      [
        "▁cá",
        -8.540891758217063
      ],
      [
        "▁Số",
        -8.541326630248905
      ],
      [
        "▁căn",
        -8.54192657767516
      ],
      [
        "_lực",
        -8.542348672927819
      ],
      [
        "▁phương_pháp",
        -8.54369739015147
      ],
      [
        "▁đông",
        -8.551722789210391
      ],
      [
        "▁trung_tâm",
        -8.552800788282333
      ],
      [
        "▁lắm",
        -8.55343442504989
      ],
      [
        "▁căn_hộ",
        -8.555568021347447
      ],
      [
        "▁đơn_vị",
        -8.557842854415329
      ],
      [
        "▁tự_nhiên",
        -8.558642705870358
      ],
      [
        "▁chi_tiết",
        -8.559796632260213
      ],
      [
        "▁thuế",
        -8.56069704980947
      ],
      [
        "▁quay",
        -8.564288723987342
      ],
      [
        "▁kỹ_thuật",
        -8.566164683553072
      ],
      [
        "▁sách",
        -8.56621674407628
      ],
      [
        "▁học_sinh",
        -8.568796468138983
      ],
      [
        "▁buổi",
        -8.569045684813863
      ],
      [
        "▁Nguyễn",
        -8.574315087258542
      ],
      [
        "▁huyện",
        -8.57497236945874
      ],
      [
        "▁đêm",
        -8.575043059718354
      ],
      [
        "▁G",
        -8.575902615422352
      ],
      [
        "▁dễ_dàng",
        -8.576036298693952
      ],
      [
        "▁khoa_học",
        -8.577464989696393
      ],
      [
        "▁quận",
        -8.577862091837972
      ],
      [
        "▁sở_hữu",
        -8.581327087362679
      ],
      [
        "▁máu",
        -8.582397888032972
      ],
      [
        "▁tình_trạng",
        -8.586811483482908
      ],
      [
        "▁xanh",
        -8.587138940130167
      ],
      [
        "khó_khăn",
        -8.588078023854301
      ],
      [
        "▁chút",
        -8.591188616149843
      ],
      [
        "▁vô",
        -8.592247096975896
      ],
      [
        "▁dẫn",
        -8.594209777996932
      ],
      [
        "▁thấp",
        -8.596751526175806
      ],
      [
        "▁l",
        -8.597076123743024
      ],
      [
        "▁miễn",
        -8.598497051638956
      ],
      [
        "▁d",
        -8.598567646574658
      ],
      [
        "▁không_gian",
        -8.599021317192255
      ],
      [
        "▁X",
        -8.600863369143992
      ],
      [
        "▁chiều",
        -8.601609517654522
      ],
      [
        "▁HCM",
        -8.602005172955693
      ],
      [
        "▁vài",
        -8.60246959573099
      ],
      [
        "▁Nam",
        -8.603561442233639
      ],
      [
        "ý",
        -8.604149004566322
      ],
      [
        "▁thực_phẩm",
        -8.606402588445901
      ],
      [
        "▁vô_cùng",
        -8.608427320279478
      ],
      [
        "đầy_đủ",
        -8.609925409084012
      ],
      [
        "▁Dịch_vụ",
        -8.610372225101957
      ],
      [
        "▁răng",
        -8.61096649403131
      ],
      [
        "▁bao_giờ",
        -8.612103886332221
      ],
      [
        "▁cũ",
        -8.613284542736617
      ],
      [
        "▁18",
        -8.619407154930869
      ],
      [
        "▁100",
        -8.621307933260137
      ],
      [
        "▁Đăng_ký",
        -8.623922825302245
      ],
      [
        "▁đá",
        -8.626746863977175
      ],
      [
        "nước_ngoài",
        -8.627222412138154
      ],
      [
        "▁giáo_dục",
        -8.630021133119664
      ],
      [
        "TP.",
        -8.631470577021776
      ],
      [
        "▁chồng",
        -8.63170429406251
      ],
      [
        "▁dù",
        -8.632316130597234
      ],
      [
        "▁nhanh_chóng",
        -8.634470578607692
      ],
      [
        "▁đấy",
        -8.634474652755404
      ],
      [
        "▁đời",
        -8.636351741992705
      ],
      [
        "▁bọn",
        -8.637355196292622
      ],
      [
        "▁x",
        -8.63746607939803
      ],
      [
        "▁Luật",
        -8.640308352481055
      ],
      [
        "áp_dụng",
        -8.640584116716552
      ],
      [
        "▁chi_phí",
        -8.64170247896376
      ],
      [
        "▁nam",
        -8.642405488454385
      ],
      [
        "▁pháp_luật",
        -8.646554217864741
      ],
      [
        "▁sạch",
        -8.648693506723761
      ],
      [
        "▁bản",
        -8.648862674993454
      ],
      [
        "▁xong",
        -8.649045268493985
      ],
      [
        "▁Giấy",
        -8.649768360970617
      ],
      [
        "▁kiểu",
        -8.650032605107842
      ],
      [
        "▁đừng",
        -8.651838020800318
      ],
      [
        "▁đào_tạo",
        -8.65273152806877
      ],
      [
        "▁chữa",
        -8.655624704946819
      ],
      [
        "▁cảm_giác",
        -8.657440881872429
      ],
      [
        "▁cơ_hội",
        -8.65779020176887
      ],
      [
        "▁hướng_dẫn",
        -8.658412984456755
      ],
      [
        "▁hãng",
        -8.660054326067376
      ],
      [
        "▁nhân_dân",
        -8.661463463141988
      ],
      [
        "▁Hai",
        -8.663745489284326
      ],
      [
        "▁quảng_cáo",
        -8.664555472568303
      ],
      [
        "▁đ",
        -8.665453720422606
      ],
      [
        "▁Hướng_dẫn",
        -8.666932237461166
      ],
      [
        "phục_vụ",
        -8.670078336868134
      ],
      [
        "▁Chúng_tôi",
        -8.670810924941327
      ],
      [
        "▁16",
        -8.671594773255364
      ],
      [
        "▁giao",
        -8.671877357473443
      ],
      [
        "▁trở",
        -8.67314910860828
      ],
      [
        "▁Về",
        -8.673831536648388
      ],
      [
        "▁nhân_viên",
        -8.674130354959317
      ],
      [
        "▁viêm",
        -8.67466087814878
      ],
      [
        "▁in",
        -8.676407770341527
      ],
      [
        "▁0",
        -8.680227187481908
      ],
      [
        "▁Được",
        -8.680461615413352
      ],
      [
        "_đẹp",
        -8.680491846686346
      ],
      [
        "▁kẻ",
        -8.680948422278231
      ],
      [
        "▁diễn",
        -8.683502738466824
      ],
      [
        "_sao",
        -8.68464475891391
      ],
      [
        "▁liên_hệ",
        -8.685525735091268
      ],
      [
        "▁bao",
        -8.68614369224758
      ],
      [
        "▁TP",
        -8.686150859792972
      ],
      [
        "▁Nhật_Bản",
        -8.687155370583884
      ],
      [
        "▁sâu",
        -8.687217467954765
      ],
      [
        "▁Vì",
        -8.68817726782034
      ],
      [
        "▁giải",
        -8.688609641864206
      ],
      [
        "▁kế_hoạch",
        -8.690046122297874
      ],
      [
        "▁bác_sĩ",
        -8.691223008676154
      ],
      [
        "trải",
        -8.694928207748823
      ],
      [
        "▁chăm_sóc",
        -8.695953700117567
      ],
      [
        "người_ta",
        -8.696731059976623
      ],
      [
        "▁nhân",
        -8.699250472216955
      ],
      [
        "▁sinh_viên",
        -8.70513837487069
      ],
      [
        "▁bản_thân",
        -8.707204581836345
      ],
      [
        "▁Địa_chỉ",
        -8.707681426704353
      ],
      [
        "▁nóng",
        -8.707946515936209
      ],
      [
        "▁ngon",
        -8.716952427510174
      ],
      [
        "_lại",
        -8.717228291962536
      ],
      [
        "▁sợ",
        -8.717842504639883
      ],
      [
        "▁phát_hiện",
        -8.71803367233435
      ],
      [
        "▁Đức",
        -8.720315491444289
      ],
      [
        "▁bóng",
        -8.720908881656344
      ],
      [
        "▁chuẩn_bị",
        -8.72128714985017
      ],
      [
        "▁to",
        -8.721884284697076
      ],
      [
        "_phép",
        -8.724363328562863
      ],
      [
        "▁đăng",
        -8.726184555954903
      ],
      [
        "▁lĩnh_vực",
        -8.726615526122025
      ],
      [
        "▁hòa",
        -8.726859009031616
      ],
      [
        "▁hình",
        -8.726980192980562
      ],
      [
        "▁thử",
        -8.729173693749624
      ],
      [
        "▁nhờ",
        -8.72972909058208
      ],
      [
        "\\",
        -8.73237740069168
      ],
      [
        "▁giải_quyết",
        -8.735531021708706
      ],
      [
        "▁14",
        -8.737541978507695
      ],
      [
        "▁Giá",
        -8.739282577022133
      ],
      [
        "▁chức_năng",
        -8.740360109521406
      ],
      [
        "▁Việc",
        -8.74050449195298
      ],
      [
        "▁bao_gồm",
        -8.74132138348232
      ],
      [
        "▁thương_mại",
        -8.743729085665107
      ],
      [
        "▁vợ",
        -8.746749795984902
      ],
      [
        "▁miền",
        -8.747963890165988
      ],
      [
        "▁13",
        -8.74854764526622
      ],
      [
        "▁hiện",
        -8.749911234439192
      ],
      [
        "ứng_dụng",
        -8.753951931970608
      ],
      [
        "▁cao_cấp",
        -8.754168993620635
      ],
      [
        "▁lãnh_đạo",
        -8.754294074039931
      ],
      [
        "▁uy_tín",
        -8.754326815703568
      ],
      [
        "▁trở_nên",
        -8.755189553522284
      ],
      [
        "▁vui",
        -8.758911796432978
      ],
      [
        "▁Sở",
        -8.759870836636031
      ],
      [
        "▁Tại",
        -8.760514173780722
      ],
      [
        "▁Con",
        -8.760710438459881
      ],
      [
        "▁Ở",
        -8.760984699686423
      ],
      [
        "’",
        -8.764968369969964
      ],
      [
        "▁sữa",
        -8.765537346577124
      ],
      [
        "▁nổi_tiếng",
        -8.769076254546993
      ],
      [
        "▁tận",
        -8.769935674935278
      ],
      [
        "▁chế_độ",
        -8.774694483230649
      ],
      [
        "▁Chính_phủ",
        -8.775605732564454
      ],
      [
        "▁Năm",
        -8.780591709280607
      ],
      [
        "▁máy_tính",
        -8.782000458486538
      ],
      [
        "▁tóc",
        -8.782952115017936
      ],
      [
        "▁thương_hiệu",
        -8.783362498037613
      ],
      [
        "tài_liệu",
        -8.78437051682675
      ],
      [
        "▁sân",
        -8.78528995185834
      ],
      [
        "▁thân",
        -8.788831188026553
      ],
      [
        "▁chính_sách",
        -8.79065262400954
      ],
      [
        "_án",
        -8.790682333377983
      ],
      [
        "▁áo",
        -8.791556659732192
      ],
      [
        "▁Tháng",
        -8.79216564750135
      ],
      [
        "▁Hàn_Quốc",
        -8.792832997925688
      ],
      [
        "▁ngân_hàng",
        -8.79296535482276
      ],
      [
        "▁công_trình",
        -8.800339091570782
      ],
      [
        "▁văn_hóa",
        -8.800445204491545
      ],
      [
        "▁chữ",
        -8.80150386893955
      ],
      [
        "▁địa_phương",
        -8.803599556089846
      ],
      [
        "bây_giờ",
        -8.806778368701806
      ],
      [
        "▁hồ_sơ",
        -8.807229086709183
      ],
      [
        "▁cổ",
        -8.80796280064721
      ],
      [
        "▁vn",
        -8.80939830342855
      ],
      [
        "▁Ban",
        -8.80950549372707
      ],
      [
        "▁tầng",
        -8.8124687271513
      ],
      [
        "▁công",
        -8.813575636764599
      ],
      [
        "▁hơi",
        -8.813586712688153
      ],
      [
        "▁17",
        -8.814444860377051
      ],
      [
        "cuối_cùng",
        -8.815421921371847
      ],
      [
        "▁Ngoài_ra",
        -8.816895965563065
      ],
      [
        "▁đóng",
        -8.817956905359624
      ],
      [
        "▁thăm",
        -8.820299916432118
      ],
      [
        "▁com",
        -8.820349108335147
      ],
      [
        "▁24",
        -8.821076427502451
      ],
      [
        "▁Đó",
        -8.821930840669673
      ],
      [
        "tác_dụng",
        -8.8222915985747
      ],
      [
        "▁thực_tế",
        -8.82328115408698
      ],
      [
        "▁Du_lịch",
        -8.827127434737406
      ],
      [
        "▁quên",
        -8.827391352185051
      ],
      [
        "▁tối",
        -8.827617571108055
      ],
      [
        "▁Còn",
        -8.82785649155754
      ],
      [
        "▁văn_phòng",
        -8.828694400390052
      ],
      [
        "_số",
        -8.829097734831159
      ],
      [
        "▁nặng",
        -8.829723183402264
      ],
      [
        "▁dạy",
        -8.829789764329151
      ],
      [
        "▁thời_điểm",
        -8.832404059434472
      ],
      [
        "▁truyện",
        -8.832599294214969
      ],
      [
        "▁nhiệm_vụ",
        -8.832670100890772
      ],
      [
        "▁01",
        -8.832892322830565
      ],
      [
        "▁đại",
        -8.833427474985307
      ],
      [
        "▁một_chút",
        -8.834378016794199
      ],
      [
        "▁dầu",
        -8.835695642367716
      ],
      [
        "e",
        -8.837991977107288
      ],
      [
        "Chủ_tịch",
        -8.838648741127416
      ],
      [
        "▁đen",
        -8.839304022939594
      ],
      [
        "▁vẻ",
        -8.840871667500805
      ],
      [
        "▁chắc",
        -8.84124955386048
      ],
      [
        "▁Đảng",
        -8.84389808209682
      ],
      [
        "▁cần_thiết",
        -8.845123912766818
      ],
      [
        "▁Nga",
        -8.846842595535332
      ],
      [
        "▁Thiết_kế",
        -8.851022127078053
      ],
      [
        "▁bức",
        -8.853056572059144
      ],
      [
        "▁khoản",
        -8.853150055877034
      ],
      [
        "▁lễ",
        -8.854107792100782
      ],
      [
        "▁địa_chỉ",
        -8.855606365734532
      ],
      [
        "▁tài_chính",
        -8.856547589796103
      ],
      [
        "▁Ta",
        -8.860585529865965
      ],
      [
        "▁Đà_Nẵng",
        -8.861350328898371
      ],
      [
        "▁vượt",
        -8.861914403654596
      ],
      [
        "▁trực_tuyến",
        -8.862991145666713
      ],
      [
        "▁đỏ",
        -8.86458974199484
      ],
      [
        "▁Tin_tức",
        -8.86657276790767
      ],
      [
        "▁kỳ",
        -8.86737780104639
      ],
      [
        "▁kết_hợp",
        -8.86745524760824
      ],
      [
        "▁Chương",
        -8.867817752583791
      ],
      [
        "▁Vậy",
        -8.868847044912872
      ],
      [
        "▁Trường",
        -8.86964309202376
      ],
      [
        "▁công_nghiệp",
        -8.870284582475284
      ],
      [
        "▁chắc_chắn",
        -8.8704853788613
      ],
      [
        "▁lượng",
        -8.870502969799386
      ],
      [
        "đàn_ông",
        -8.871641753236634
      ],
      [
        "▁Đường",
        -8.87211951332886
      ],
      [
        "▁rộng",
        -8.873997901297553
      ],
      [
        "▁toàn",
        -8.876372808836738
      ],
      [
        "▁2014",
        -8.8770577156077
      ],
      [
        "▁bổ_sung",
        -8.87761395758878
      ],
      [
        "▁quý",
        -8.878453070678098
      ],
      [
        "ng",
        -8.878578775745888
      ],
      [
        "▁trận",
        -8.87882855208598
      ],
      [
        "_em",
        -8.879632004702337
      ],
      [
        "▁coi",
        -8.87964806176074
      ],
      [
        "▁Sự",
        -8.880133210189145
      ],
      [
        "▁xã",
        -8.880171083081654
      ],
      [
        "▁bay",
        -8.88174367629819
      ],
      [
        "▁ý_kiến",
        -8.882469853023078
      ],
      [
        "▁nổi",
        -8.882957136775042
      ],
      [
        "▁vé",
        -8.883039808979861
      ],
      [
        "▁tìm_kiếm",
        -8.883308995494946
      ],
      [
        "▁lịch_sử",
        -8.885464233468571
      ],
      [
        "đứa",
        -8.886943386991208
      ],
      [
        "▁tặng",
        -8.890406949726437
      ],
      [
        "▁Bà",
        -8.890736004284175
      ],
      [
        "▁ngắn",
        -8.89123332102292
      ],
      [
        "▁châu",
        -8.89215581783245
      ],
      [
        "▁thường_xuyên",
        -8.892553306906764
      ],
      [
        "▁Bên",
        -8.893233556688303
      ],
      [
        "▁đại_học",
        -8.893708619466066
      ],
      [
        "▁19",
        -8.89692543966456
      ],
      [
        "▁trời",
        -8.897636018024805
      ],
      [
        "▁văn_bản",
        -8.899842252992714
      ],
      [
        "▁cán_bộ",
        -8.901383385049247
      ],
      [
        "▁báo_cáo",
        -8.904472640636175
      ],
      [
        "▁gỗ",
        -8.905134448161025
      ],
      [
        "▁bánh",
        -8.906891216272182
      ],
      [
        "▁Đại_học",
        -8.907088592229128
      ],
      [
        "▁lạnh",
        -8.90968521024068
      ],
      [
        "▁giải_pháp",
        -8.915089969905912
      ],
      [
        "▁nội_thất",
        -8.915334600449782
      ],
      [
        "▁thực_sự",
        -8.915697164205062
      ],
      [
        "_giá",
        -8.915992935748154
      ],
      [
        "▁nhà_nước",
        -8.916879850095496
      ],
      [
        "▁giai_đoạn",
        -8.917060662854828
      ],
      [
        "▁ngày_càng",
        -8.917406953274826
      ],
      [
        "▁Nhiều",
        -8.918187801957405
      ],
      [
        "▁nguyên_nhân",
        -8.918979008328582
      ],
      [
        "▁25",
        -8.919760384316673
      ],
      [
        "▁bình_thường",
        -8.919953203541413
      ],
      [
        "▁ngôi",
        -8.923295227232623
      ],
      [
        "▁quả",
        -8.924603363884051
      ],
      [
        "bao_nhiêu",
        -8.927492547863272
      ],
      [
        "▁Là",
        -8.928002746180242
      ],
      [
        "▁thư",
        -8.928418209424631
      ],
      [
        "▁yếu_tố",
        -8.930009991404951
      ],
      [
        "▁trở_lại",
        -8.930572152448581
      ],
      [
        "▁xác_định",
        -8.932412248728836
      ],
      [
        "▁Bắc",
        -8.933798158024738
      ],
      [
        "▁cân",
        -8.937175229550547
      ],
      [
        "▁lý_do",
        -8.937310657906899
      ],
      [
        "▁tàu",
        -8.93995674209168
      ],
      [
        "▁50",
        -8.941625555758828
      ],
      [
        "▁kiếm",
        -8.942383029876146
      ],
      [
        "▁bảng",
        -8.942546623101808
      ],
      [
        "▁cầu",
        -8.943516757036823
      ],
      [
        "▁21",
        -8.943631078043847
      ],
      [
        "▁mối",
        -8.944519443668355
      ],
      [
        "▁lỗi",
        -8.945689039482787
      ],
      [
        "▁VN",
        -8.94660295507037
      ],
      [
        "▁hạnh_phúc",
        -8.950514666133309
      ],
      [
        "▁Trước",
        -8.950715425832165
      ],
      [
        "▁thịt",
        -8.950774529321384
      ],
      [
        "▁Họ",
        -8.951272844991607
      ],
      [
        "▁USD",
        -8.95178281136228
      ],
      [
        "▁màn_hình",
        -8.954692644965862
      ],
      [
        "▁đội",
        -8.95740799822471
      ],
      [
        "▁môn",
        -8.958675480318371
      ],
      [
        "▁thanh_toán",
        -8.95880608583232
      ],
      [
        "▁khách_sạn",
        -8.960454023116261
      ],
      [
        "▁chứa",
        -8.960933381515861
      ],
      [
        "▁đồng_thời",
        -8.962866234030118
      ],
      [
        "▁giới_thiệu",
        -8.963326720159044
      ],
      [
        "▁Do",
        -8.964458296795872
      ],
      [
        "▁mắc",
        -8.965752486910317
      ],
      [
        "▁thai",
        -8.966030872095622
      ],
      [
        "▁mặc",
        -8.96606458780984
      ],
      [
        "▁rõ_ràng",
        -8.967237215442436
      ],
      [
        "▁hấp_dẫn",
        -8.967474617593025
      ],
      [
        "▁chuyên_gia",
        -8.967923296483642
      ],
      [
        "▁biến",
        -8.968451058119161
      ],
      [
        "▁Chính_sách",
        -8.969244972176998
      ],
      [
        "▁chuyên_nghiệp",
        -8.970512359460832
      ],
      [
        "_mặt",
        -8.971654600622548
      ],
      [
        "▁lo",
        -8.973480695981937
      ],
      [
        "▁đối_tượng",
        -8.97404473161903
      ],
      [
        "▁Nó",
        -8.974772560848098
      ],
      [
        "▁chú_ý",
        -8.976666893975914
      ],
      [
        "▁kèm",
        -8.976739075721175
      ],
      [
        "▁toàn_bộ",
        -8.977878624448584
      ],
      [
        "▁miệng",
        -8.978050659675244
      ],
      [
        "▁Trên",
        -8.979481773534841
      ],
      [
        "Tư_vấn",
        -8.979666690145336
      ],
      [
        "▁tài_sản",
        -8.980961643216052
      ],
      [
        "▁tập_trung",
        -8.981642378417499
      ],
      [
        "▁Chính",
        -8.981665736867516
      ],
      [
        "▁tập",
        -8.984115936766631
      ],
      [
        "▁đơn",
        -8.98567267552753
      ],
      [
        "▁Sài_Gòn",
        -8.985970351273531
      ],
      [
        "▁chính_thức",
        -8.986671802990108
      ],
      [
        "▁cơ_bản",
        -8.987840764120648
      ],
      [
        "▁thầy",
        -8.988649723474403
      ],
      [
        "▁đèn",
        -8.989242447371824
      ],
      [
        "hiện_tại",
        -8.989773405216738
      ],
      [
        "▁suốt",
        -8.991228389358369
      ],
      [
        "▁chuyến",
        -8.99141402161336
      ],
      [
        "▁mời",
        -8.993937118239106
      ],
      [
        "▁gồm",
        -8.99406403701512
      ],
      [
        "▁phụ",
        -8.994949697532766
      ],
      [
        "▁bình",
        -8.995677866551972
      ],
      [
        "▁mũi",
        -8.99610325973446
      ],
      [
        "▁tiếp",
        -8.998515630875115
      ],
      [
        "▁triển_khai",
        -9.00011878293999
      ],
      [
        "▁núi",
        -9.000836959601179
      ],
      [
        "▁giao_dịch",
        -9.001171053634545
      ],
      [
        "▁Báo",
        -9.001213013353247
      ],
      [
        ">",
        -9.001398944704384
      ],
      [
        "niềm",
        -9.00280071089894
      ],
      [
        "▁tham_khảo",
        -9.003392586175458
      ],
      [
        "▁cụ_thể",
        -9.005398381011439
      ],
      [
        "▁Câu",
        -9.005949453818257
      ],
      [
        "_qua",
        -9.006105406841312
      ],
      [
        "▁Đến",
        -9.00645410864406
      ],
      [
        "▁thông_báo",
        -9.00674920325848
      ],
      [
        "▁Nhật",
        -9.007227702600405
      ],
      [
        "▁tinh_thần",
        -9.008046989401326
      ],
      [
        "▁Bán",
        -9.008186745947045
      ],
      [
        "▁hình_thức",
        -9.008945902751403
      ],
      [
        "▁Hiện",
        -9.010029093223556
      ],
      [
        "▁ghi",
        -9.010289972918892
      ],
      [
        "▁thậm_chí",
        -9.010610930188072
      ],
      [
        "▁Máy",
        -9.011544454743555
      ],
      [
        "▁sai",
        -9.012208599757953
      ],
      [
        "▁Trung_tâm",
        -9.012530344839172
      ],
      [
        "▁sức",
        -9.01429029883513
      ],
      [
        "▁đáp_ứng",
        -9.014556723134008
      ],
      [
        "▁rượu",
        -9.015577580714696
      ],
      [
        "▁ung_thư",
        -9.015961437494203
      ],
      [
        "▁cháu",
        -9.016055653099563
      ],
      [
        "▁thời",
        -9.018814218044268
      ],
      [
        "▁chụp",
        -9.020632716988686
      ],
      [
        "▁thông_qua",
        -9.02171418485582
      ],
      [
        "▁chờ",
        -9.023202709164789
      ],
      [
        "▁thể_hiện",
        -9.023251838693744
      ],
      [
        "▁mục_tiêu",
        -9.026841096945432
      ],
      [
        "▁thay",
        -9.02802601353944
      ],
      [
        "▁vệ_sinh",
        -9.02808215413778
      ],
      [
        "▁nổi_bật",
        -9.02855815390588
      ],
      [
        "▁ánh",
        -9.028585659551888
      ],
      [
        "▁lá",
        -9.03043930430736
      ],
      [
        "▁thành_lập",
        -9.03154237554889
      ],
      [
        "▁dạng",
        -9.032515883887244
      ],
      [
        "▁cực",
        -9.033393075913033
      ],
      [
        "▁Phòng",
        -9.033763366696007
      ],
      [
        "▁nhẹ",
        -9.033920039266388
      ],
      [
        "▁giới",
        -9.035127021772167
      ],
      [
        "▁tình",
        -9.03596296869641
      ],
      [
        "▁bất_cứ",
        -9.037324851393182
      ],
      [
        "▁phát",
        -9.03740866241088
      ],
      [
        "▁2013",
        -9.037788968948323
      ],
      [
        "_nên",
        -9.038661480073614
      ],
      [
        "trẻ_em",
        -9.039851043444736
      ],
      [
        "▁Có_thể",
        -9.040618161964913
      ],
      [
        "▁chặt",
        -9.040904439212976
      ],
      [
        "▁Nhà_nước",
        -9.042357527212296
      ],
      [
        "▁tiến_hành",
        -9.042384365285551
      ],
      [
        "▁phổ_biến",
        -9.042680044746731
      ],
      [
        "▁giả",
        -9.0434031711858
      ],
      [
        "▁Sản_phẩm",
        -9.044562654863876
      ],
      [
        "▁cắt",
        -9.045306340870086
      ],
      [
        "▁Đối_với",
        -9.045543848919335
      ],
      [
        "dựa",
        -9.047791645112802
      ],
      [
        "▁mụn",
        -9.047827458029367
      ],
      [
        "▁sự_kiện",
        -9.048503886673272
      ],
      [
        "▁vay",
        -9.04998247314957
      ],
      [
        "▁nắm",
        -9.050934711229852
      ],
      [
        "▁chính_xác",
        -9.051209559353332
      ],
      [
        "▁chuyên",
        -9.052522037726112
      ],
      [
        "▁Chúa",
        -9.05305878963329
      ],
      [
        "▁22",
        -9.055708405888762
      ],
      [
        "▁bình_luận",
        -9.055898275652494
      ],
      [
        "▁hành_động",
        -9.05606871170962
      ],
      [
        "▁sông",
        -9.056842622023058
      ],
      [
        "▁tầm",
        -9.058665181418723
      ],
      [
        "▁bảo",
        -9.064191861247725
      ],
      [
        "▁hát",
        -9.064541429661649
      ],
      [
        "▁hề",
        -9.067400363718727
      ],
      [
        "▁tiết_kiệm",
        -9.071693326910353
      ],
      [
        "▁dám",
        -9.073215208063017
      ],
      [
        "▁chàng",
        -9.076297139907032
      ],
      [
        "▁R",
        -9.07703624018588
      ],
      [
        "▁tìm_hiểu",
        -9.077445570501151
      ],
      [
        "_hại",
        -9.078382000582112
      ],
      [
        "▁dự",
        -9.078461784930896
      ],
      [
        "▁ô_tô",
        -9.078578380599104
      ],
      [
        "▁UBND",
        -9.079300763104444
      ],
      [
        "▁game",
        -9.081244947589722
      ],
      [
        "▁nguy_hiểm",
        -9.081446042122524
      ],
      [
        "ạ",
        -9.082010013729844
      ],
      [
        "▁tấm",
        -9.082526402392196
      ],
      [
        "▁phân",
        -9.082731199877754
      ],
      [
        "▁khô",
        -9.083064613121609
      ],
      [
        "▁chính_trị",
        -9.083579209236076
      ],
      [
        "▁cửa_hàng",
        -9.085127166654589
      ],
      [
        "▁giao_thông",
        -9.085663874321986
      ],
      [
        "▁truy_cập",
        -9.08696438017944
      ],
      [
        "Đăng_nhập",
        -9.087916288415515
      ],
      [
        "▁Thứ",
        -9.089940652095551
      ],
      [
        "▁bầu",
        -9.090534914060983
      ],
      [
        "▁kiến_thức",
        -9.094090917328575
      ],
      [
        "▁cập_nhật",
        -9.09525768840105
      ],
      [
        "▁hộ",
        -9.099792944566426
      ],
      [
        "▁tuyệt_vời",
        -9.100420574621928
      ],
      [
        "thủ_tục",
        -9.100802106321376
      ],
      [
        "▁phong_cách",
        -9.102076162737909
      ],
      [
        "▁lượt",
        -9.102475723612429
      ],
      [
        "▁ghế",
        -9.104251457770532
      ],
      [
        "▁Xin",
        -9.104805937601702
      ],
      [
        "▁Hỗ_trợ",
        -9.10665686620256
      ],
      [
        "▁hàng_đầu",
        -9.106914632412265
      ],
      [
        "▁suy_nghĩ",
        -9.10786958738775
      ],
      [
        "▁tình_yêu",
        -9.109491723082185
      ],
      [
        "▁đất_nước",
        -9.110723844092874
      ],
      [
        "▁mười",
        -9.112174325692813
      ],
      [
        "▁Liên_hệ",
        -9.113967807484434
      ],
      [
        "▁mưa",
        -9.114223396786109
      ],
      [
        "▁thông_minh",
        -9.114765415328815
      ],
      [
        "▁Hội",
        -9.114957930569654
      ],
      [
        "▁lập",
        -9.115189884652898
      ],
      [
        "▁09",
        -9.116067625267236
      ],
      [
        "▁Tên",
        -9.116876400656077
      ],
      [
        "▁bất_động_sản",
        -9.11835809247583
      ],
      [
        "▁phần_mềm",
        -9.119780941248818
      ],
      [
        "▁hợp_đồng",
        -9.12005009156734
      ],
      [
        "▁quán",
        -9.121912424505735
      ],
      [
        "▁nghỉ",
        -9.12415770408266
      ],
      [
        "dữ_liệu",
        -9.124540017016338
      ],
      [
        "▁email",
        -9.124657694790722
      ],
      [
        "▁nguyên",
        -9.125640040516366
      ],
      [
        "▁nuôi",
        -9.126943564863527
      ],
      [
        "▁Trang",
        -9.12809332182307
      ],
      [
        "▁nghề",
        -9.12857457134028
      ],
      [
        "▁khám",
        -9.129109866682237
      ],
      [
        "▁kéo",
        -9.12951420301892
      ],
      [
        "▁chậm",
        -9.129618962161212
      ],
      [
        "▁bệnh_nhân",
        -9.133272822984368
      ],
      [
        "▁trái",
        -9.134339908872164
      ],
      [
        "▁sắp",
        -9.13477606766971
      ],
      [
        "_đây",
        -9.137411756284092
      ],
      [
        "▁dây",
        -9.139175313504348
      ],
      [
        "▁quân",
        -9.141866418393477
      ],
      [
        "▁Ba",
        -9.142734288051058
      ],
      [
        "▁‘",
        -9.14388549934251
      ],
      [
        "▁Ảnh",
        -9.144127798020405
      ],
      [
        "©",
        -9.144404862962562
      ],
      [
        "_là",
        -9.144614012798112
      ],
      [
        "▁tim",
        -9.144956548846627
      ],
      [
        "▁mã",
        -9.146062610394877
      ],
      [
        "▁quà",
        -9.14623799947715
      ],
      [
        "▁liên_tục",
        -9.146292430938717
      ],
      [
        "▁hạn_chế",
        -9.14636933537439
      ],
      [
        "▁biện_pháp",
        -9.14644842986436
      ],
      [
        "r",
        -9.14683573604649
      ],
      [
        "▁thẻ",
        -9.147318558727989
      ],
      [
        "▁trăm",
        -9.147937278408644
      ],
      [
        "▁bếp",
        -9.148305099574928
      ],
      [
        "▁siêu",
        -9.1500779652071
      ],
      [
        "▁cộng_đồng",
        -9.151595087020516
      ],
      [
        "▁tương_lai",
        -9.152346978216771
      ],
      [
        "▁mục_đích",
        -9.15248203844368
      ],
      [
        "▁tiêu_chuẩn",
        -9.154288637134792
      ],
      [
        "▁học_tập",
        -9.154301672527602
      ],
      [
        "▁bụng",
        -9.154658604383002
      ],
      [
        "▁hệ",
        -9.15468812057783
      ],
      [
        "▁dân_tộc",
        -9.154802337639005
      ],
      [
        "▁ca",
        -9.154868905722296
      ],
      [
        "▁hợp_tác",
        -9.156279912702558
      ],
      [
        "▁nhập",
        -9.156805815968694
      ],
      [
        "▁nghiệm",
        -9.156840307022456
      ],
      [
        "▁Công_nghệ",
        -9.157590283036258
      ],
      [
        "▁nắng",
        -9.15947436829338
      ],
      [
        "▁Một_số",
        -9.161090774935724
      ],
      [
        "▁tuyến",
        -9.161256222946331
      ],
      [
        "▁khắp",
        -9.162127812502602
      ],
      [
        "▁thật_sự",
        -9.163938879035696
      ],
      [
        "M",
        -9.164698512633372
      ],
      [
        "à",
        -9.16500742948222
      ],
      [
        "_vì",
        -9.16519320266556
      ],
      [
        "▁Mỗi",
        -9.165489485081524
      ],
      [
        "▁hút",
        -9.165534147718985
      ],
      [
        "▁nửa",
        -9.16554616356233
      ],
      [
        "Thủ_tướng",
        -9.165673490917476
      ],
      [
        "▁viên",
        -9.166101598874237
      ],
      [
        "▁lạ",
        -9.16727594532279
      ],
      [
        "▁cuốn",
        -9.167473996549088
      ],
      [
        "▁khẳng_định",
        -9.16894618560642
      ],
      [
        "▁đảo",
        -9.169623748400738
      ],
      [
        "▁cầm",
        -9.169814525504298
      ],
      [
        "▁ý_nghĩa",
        -9.170988709084993
      ],
      [
        "▁tăng_cường",
        -9.172017978627157
      ],
      [
        "▁giết",
        -9.172129621536442
      ],
      [
        "▁nhất_định",
        -9.17340367546313
      ],
      [
        "▁Cũng",
        -9.175103438376311
      ],
      [
        "▁Mẹ",
        -9.175702665065796
      ],
      [
        "▁diện_tích",
        -9.177692137511992
      ],
      [
        "▁05",
        -9.17841610706422
      ],
      [
        "▁rơi",
        -9.179056057622113
      ],
      [
        "▁trị",
        -9.17998174980528
      ],
      [
        "▁gia",
        -9.18105678547871
      ],
      [
        "▁tự_do",
        -9.18113779445723
      ],
      [
        "▁đổi",
        -9.181553232757224
      ],
      [
        "▁Mọi",
        -9.181784619614833
      ],
      [
        "▁xấu",
        -9.182635834264866
      ],
      [
        "▁kính",
        -9.182884210244
      ],
      [
        "▁đô_thị",
        -9.18351243492582
      ],
      [
        "▁tổng_hợp",
        -9.18437143722779
      ],
      [
        "▁Cái",
        -9.18469899654092
      ],
      [
        "_hóa",
        -9.18522352862769
      ],
      [
        "_độ",
        -9.185932928927546
      ],
      [
        "▁Khu",
        -9.186468898717948
      ],
      [
        "▁rừng",
        -9.186578405436022
      ],
      [
        "▁dừng",
        -9.186780418187922
      ],
      [
        "▁chung_cư",
        -9.187320181514664
      ],
      [
        "y_tế",
        -9.187574955721209
      ],
      [
        "▁ban",
        -9.187749198095547
      ],
      [
        "▁cha",
        -9.18841278861681
      ],
      [
        "▁ổn_định",
        -9.188447085806004
      ],
      [
        "▁dậy",
        -9.189625975303176
      ],
      [
        "mật_khẩu",
        -9.1901373840938
      ],
      [
        "▁nét",
        -9.191515750004196
      ],
      [
        "▁online",
        -9.191584240164632
      ],
      [
        "▁thoải_mái",
        -9.192543201447476
      ],
      [
        "▁tủ",
        -9.19291628256427
      ],
      [
        "▁23",
        -9.193903010004483
      ],
      [
        "▁kiểm_soát",
        -9.193932717561337
      ],
      [
        "▁rời",
        -9.194020649698867
      ],
      [
        "▁Tất_cả",
        -9.19432706823815
      ],
      [
        "▁gió",
        -9.196261411874731
      ],
      [
        "▁02",
        -9.196944152565292
      ],
      [
        "▁phố",
        -9.19757978019712
      ],
      [
        "▁đổ",
        -9.198308410276535
      ],
      [
        "▁nhạc",
        -9.198785274458006
      ],
      [
        "▁03",
        -9.198889502830436
      ],
      [
        "▁làm_sao",
        -9.19932854639605
      ],
      [
        "▁ký",
        -9.201947695213848
      ],
      [
        "▁Lúc",
        -9.2022439452491
      ],
      [
        "▁08",
        -9.20427266286153
      ],
      [
        "▁bất_ngờ",
        -9.204388628519578
      ],
      [
        "ô",
        -9.20584845755219
      ],
      [
        "▁truyền_thống",
        -9.20698501882345
      ],
      [
        "▁đại_diện",
        -9.209812809597764
      ],
      [
        "▁hoàn_thành",
        -9.212043783254344
      ],
      [
        "▁Email",
        -9.213361441899448
      ],
      [
        "bữa",
        -9.214420635458117
      ],
      [
        "▁mạnh_mẽ",
        -9.21454956721822
      ],
      [
        "▁nguy_cơ",
        -9.21462275030611
      ],
      [
        "▁hành_chính",
        -9.214687340098529
      ],
      [
        "▁VÀ",
        -9.216461245573356
      ],
      [
        "▁2012",
        -9.217092460201316
      ],
      [
        "▁Công",
        -9.218149367298832
      ],
      [
        "▁Học",
        -9.21896613100264
      ],
      [
        "▁lợi_ích",
        -9.21999650352485
      ],
      [
        "▁bác",
        -9.220317308258974
      ],
      [
        "▁số_lượng",
        -9.221956680888582
      ],
      [
        "mong_muốn",
        -9.222168927175368
      ],
      [
        "_mình",
        -9.222314397253168
      ],
      [
        "▁cố_gắng",
        -9.22235654087245
      ],
      [
        "▁thanh",
        -9.222597318552744
      ],
      [
        "▁kinh",
        -9.223768127531564
      ],
      [
        "▁lo_lắng",
        -9.224704596979224
      ],
      [
        "▁sàn",
        -9.2253116216834
      ],
      [
        "▁07",
        -9.22802558715568
      ],
      [
        "▁40",
        -9.228034646448046
      ],
      [
        "▁thẩm_mỹ",
        -9.228239605747635
      ],
      [
        "▁đề_nghị",
        -9.230863858444476
      ],
      [
        "▁phá",
        -9.231035767888775
      ],
      [
        "▁hạ",
        -9.23209399813948
      ],
      [
        "thu_hút",
        -9.232112093172503
      ],
      [
        "▁dần",
        -9.232704564989392
      ],
      [
        "_nào",
        -9.233666246547008
      ],
      [
        "▁tiến",
        -9.235346230061074
      ],
      [
        "▁Ngài",
        -9.235665187344358
      ],
      [
        "▁Facebook",
        -9.236582760533487
      ],
      [
        "▁thoát",
        -9.237467178209952
      ],
      [
        "▁bất_kỳ",
        -9.238410639520865
      ],
      [
        "▁Thời_gian",
        -9.238941358752651
      ],
      [
        "▁ngừng",
        -9.240509689741923
      ],
      [
        "▁lưng",
        -9.241081222782576
      ],
      [
        "=",
        -9.24312188505096
      ],
      [
        "▁tranh",
        -9.24441408419531
      ],
      [
        "▁iPhone",
        -9.246667949266843
      ],
      [
        "▁chia",
        -9.246929330317718
      ],
      [
        "I",
        -9.248203923011282
      ],
      [
        "▁lão",
        -9.248387529030998
      ],
      [
        "▁rửa",
        -9.24970151117083
      ],
      [
        "▁công_bố",
        -9.251554812152646
      ],
      [
        "▁trai",
        -9.252072423041088
      ],
      [
        "▁tính_năng",
        -9.255391286318268
      ],
      [
        "▁mùi",
        -9.255417573939072
      ],
      [
        "▁đoàn",
        -9.2565397317867
      ],
      [
        "▁kêu",
        -9.258256922287108
      ],
      [
        "▁tòa",
        -9.25995995000084
      ],
      [
        "▁giọng",
        -9.260025146854808
      ],
      [
        "▁họp",
        -9.26019132354576
      ],
      [
        "▁tâm",
        -9.260689942894258
      ],
      [
        "▁cánh",
        -9.26241916524925
      ],
      [
        "▁lập_tức",
        -9.26602213810546
      ],
      [
        "▁ngực",
        -9.266088787433675
      ],
      [
        "▁con_gái",
        -9.267117349718404
      ],
      [
        "▁năng_lượng",
        -9.267535832962178
      ],
      [
        "▁môi",
        -9.26817795848923
      ],
      [
        "▁chi",
        -9.269147311462584
      ],
      [
        "▁06",
        -9.269501917474525
      ],
      [
        "▁theo_dõi",
        -9.270252602410045
      ],
      [
        "▁Nói",
        -9.271069745301824
      ],
      [
        "▁nhập_khẩu",
        -9.2723742427453
      ],
      [
        "•",
        -9.27247880329896
      ],
      [
        "▁thời_trang",
        -9.27275749059702
      ],
      [
        "▁kém",
        -9.274297205025736
      ],
      [
        "▁tường",
        -9.274596976652196
      ],
      [
        "▁trồng",
        -9.275756112485873
      ],
      [
        "▁thể_thao",
        -9.27637067650882
      ],
      [
        "▁sáng_tạo",
        -9.27664985813602
      ],
      [
        "▁hàng_hóa",
        -9.277319462722192
      ],
      [
        "▁Dù",
        -9.277345431932645
      ],
      [
        "▁tốc_độ",
        -9.277386912979647
      ],
      [
        "▁bạn_bè",
        -9.277728350691694
      ],
      [
        "▁cháy",
        -9.279543733736118
      ],
      [
        "▁vai_trò",
        -9.28058180077574
      ],
      [
        "▁Bởi",
        -9.28085532804365
      ],
      [
        "▁cà_phê",
        -9.281205689750797
      ],
      [
        "vui_lòng",
        -9.28360913272763
      ],
      [
        "▁rau",
        -9.284550830669216
      ],
      [
        "▁Giáo_dục",
        -9.2850133280944
      ],
      [
        "▁cảnh",
        -9.28630603480176
      ],
      [
        "▁ngàn",
        -9.286958166027556
      ],
      [
        "▁Chúng_ta",
        -9.288465010833033
      ],
      [
        "▁khí",
        -9.290890322654842
      ],
      [
        "▁hồi",
        -9.29089468084306
      ],
      [
        "▁Phật",
        -9.291591885265456
      ],
      [
        "▁gấp",
        -9.292523627718149
      ],
      [
        "▁kế_toán",
        -9.29261156083144
      ],
      [
        "▁tùy",
        -9.29351821316772
      ],
      [
        "▁cơm",
        -9.294228365565528
      ],
      [
        "▁nội",
        -9.29430162288755
      ],
      [
        "▁buồn",
        -9.294446922582615
      ],
      [
        "▁Tết",
        -9.294548295193833
      ],
      [
        "▁Á",
        -9.295046715659096
      ],
      [
        "▁ko",
        -9.295196309622948
      ],
      [
        "▁Tài_chính",
        -9.295635972536854
      ],
      [
        "_đảo",
        -9.296699073033508
      ],
      [
        "tiêu_dùng",
        -9.29729785682368
      ],
      [
        "▁chuẩn",
        -9.297622003205529
      ],
      [
        "▁Cần",
        -9.297882176291129
      ],
      [
        "▁bệnh_viện",
        -9.300667297063818
      ],
      [
        "▁hợp_lý",
        -9.300775972450792
      ],
      [
        "▁kết_nối",
        -9.301298065051068
      ],
      [
        "▁Phường",
        -9.304145908666344
      ],
      [
        "▁bất",
        -9.305514183972466
      ],
      [
        "▁Tổng_",
        -9.306961532779615
      ],
      [
        "việc_làm",
        -9.307114713610686
      ],
      [
        "▁tình_hình",
        -9.307138332137551
      ],
      [
        "▁đám",
        -9.307257664162517
      ],
      [
        "▁tự_động",
        -9.30806394721751
      ],
      [
        "▁Quy_định",
        -9.30832283642921
      ],
      [
        "_cứ",
        -9.309162108833512
      ],
      [
        "▁Hệ_thống",
        -9.30928703009893
      ],
      [
        "▁Ý",
        -9.309672876041972
      ],
      [
        "▁lực_lượng",
        -9.30977049071331
      ],
      [
        "▁chiếm",
        -9.310250847267604
      ],
      [
        "▁dấu_hiệu",
        -9.312320893432643
      ],
      [
        "▁đảng",
        -9.316205409533348
      ],
      [
        "▁cơn",
        -9.316900475133997
      ],
      [
        "▁Bệnh",
        -9.317385084498016
      ],
      [
        "_khi",
        -9.317478947217896
      ],
      [
        "▁Đang",
        -9.318355708326555
      ],
      [
        "▁Ai",
        -9.318589332820029
      ],
      [
        "▁màu_sắc",
        -9.3186957285094
      ],
      [
        "▁điều_chỉnh",
        -9.31937468502751
      ],
      [
        "▁kỹ",
        -9.319771168035492
      ],
      [
        "▁rút",
        -9.321073057662767
      ],
      [
        "▁lưu_ý",
        -9.322030581434468
      ],
      [
        "▁hạt",
        -9.322155503433487
      ],
      [
        "▁ánh_sáng",
        -9.323000934966649
      ],
      [
        "_sư",
        -9.323862644769184
      ],
      [
        "ìm_kiếm",
        -9.323906432169276
      ],
      [
        "▁hồ",
        -9.323919440724332
      ],
      [
        "▁phí",
        -9.327451620958762
      ],
      [
        "▁an_ninh",
        -9.32767676444343
      ],
      [
        "▁Chương_trình",
        -9.328405540841128
      ],
      [
        "▁quý_khách",
        -9.330727464590309
      ],
      [
        "▁Thế",
        -9.330909969910378
      ],
      [
        "▁không_khí",
        -9.331160783267723
      ],
      [
        "▁nộp",
        -9.332284840261512
      ],
      [
        "▁vi_phạm",
        -9.332399836584113
      ],
      [
        "▁Gửi",
        -9.33282210599368
      ],
      [
        "▁tối_đa",
        -9.334213693174302
      ],
      [
        "▁dinh_dưỡng",
        -9.336551448784284
      ],
      [
        "▁điều_tra",
        -9.3365872267323
      ],
      [
        "▁hẳn",
        -9.33731266548196
      ],
      [
        "▁nợ",
        -9.33739362337498
      ],
      [
        "▁thay_thế",
        -9.33791967769706
      ],
      [
        "▁04",
        -9.338110614116603
      ],
      [
        "▁chú",
        -9.3387307535196
      ],
      [
        "_lẽ",
        -9.340391487451194
      ],
      [
        "▁lương",
        -9.3403939317654
      ],
      [
        "▁đồng_hồ",
        -9.3411108055849
      ],
      [
        "▁phối_hợp",
        -9.342113731249606
      ],
      [
        "▁vận_chuyển",
        -9.342679276266036
      ],
      [
        "▁Trung",
        -9.342807465039115
      ],
      [
        "▁kỹ_năng",
        -9.342821511157757
      ],
      [
        "▁án",
        -9.34354470195224
      ],
      [
        "▁trông",
        -9.343823051348869
      ],
      [
        "▁cải_thiện",
        -9.344153536701686
      ],
      [
        "▁tích_cực",
        -9.344734975427182
      ],
      [
        "▁diễn_đàn",
        -9.344940135371637
      ],
      [
        "▁nghệ_thuật",
        -9.345750904715896
      ],
      [
        "▁cơ",
        -9.34850962162532
      ],
      [
        "▁đa",
        -9.349247825325651
      ],
      [
        "▁cung",
        -9.35045045338934
      ],
      [
        "▁tác_động",
        -9.351981183663318
      ],
      [
        "▁ấn_tượng",
        -9.35254962491548
      ],
      [
        "▁Hoa_Kỳ",
        -9.353313984658678
      ],
      [
        "▁tắm",
        -9.35331788945228
      ],
      [
        "▁Xe",
        -9.354314882182404
      ],
      [
        "▁quần_áo",
        -9.356128775240771
      ],
      [
        "▁tải",
        -9.356375606687012
      ],
      [
        "_học",
        -9.35641467481246
      ],
      [
        "▁Hàng",
        -9.35706296904706
      ],
      [
        "▁đoạn",
        -9.357094493174966
      ],
      [
        "▁xung_quanh",
        -9.35790908078861
      ],
      [
        "▁26",
        -9.360587419193756
      ],
      [
        "▁may",
        -9.361616474726317
      ],
      [
        "▁Hoa",
        -9.3619753201227
      ],
      [
        "▁khóc",
        -9.363597962128544
      ],
      [
        "▁mở_rộng",
        -9.363785376727712
      ],
      [
        "▁hành_vi",
        -9.363873071362756
      ],
      [
        "▁có_lẽ",
        -9.365404289495554
      ],
      [
        "▁ngoại",
        -9.365463974600395
      ],
      [
        "▁năng_lực",
        -9.366075094370965
      ],
      [
        "▁nỗi",
        -9.366980710577122
      ],
      [
        "▁duy_nhất",
        -9.368234585183837
      ],
      [
        "▁Đã",
        -9.36835968210203
      ],
      [
        "▁sẵn",
        -9.36988612722718
      ],
      [
        "▁sửa",
        -9.370150827048194
      ],
      [
        "▁Tây",
        -9.370368387829696
      ],
      [
        "▁tr",
        -9.370707261424965
      ],
      [
        "▁Văn_bản",
        -9.370926475393484
      ],
      [
        "▁Xây_dựng",
        -9.371068658838926
      ],
      [
        "▁Giải",
        -9.371121755685738
      ],
      [
        "▁đạo",
        -9.371208983129977
      ],
      [
        "▁Đông",
        -9.372151922756402
      ],
      [
        "▁đồng_ý",
        -9.37450777780596
      ],
      [
        "▁Trang_chủ",
        -9.37584689373128
      ],
      [
        "ụ",
        -9.37601838620644
      ],
      [
        "▁gốc",
        -9.376367810263512
      ],
      [
        "▁giường",
        -9.380041684846908
      ],
      [
        "Tại_sao",
        -9.38091127877444
      ],
      [
        "▁Mới",
        -9.381258121036543
      ],
      [
        "▁cứu",
        -9.381323395475112
      ],
      [
        "▁tấn_công",
        -9.38232025213621
      ],
      [
        "▁Đừng",
        -9.38306113900001
      ],
      [
        "▁đăng_nhập",
        -9.384203903016576
      ],
      [
        "▁bậc",
        -9.384501405064553
      ],
      [
        "▁cưới",
        -9.384559487227532
      ],
      [
        "▁túi",
        -9.386178567816478
      ],
      [
        "▁Bước",
        -9.386504433684133
      ],
      [
        "kéo_dài",
        -9.38783609422589
      ],
      [
        "▁du_học",
        -9.388223428556287
      ],
      [
        "▁hồng",
        -9.389725680781575
      ],
      [
        "▁du_khách",
        -9.390437788574635
      ],
      [
        "▁giàu",
        -9.390722783211212
      ],
      [
        "▁cạnh_tranh",
        -9.391073748000082
      ],
      [
        "▁xương",
        -9.391147584812602
      ],
      [
        "▁Tiếng",
        -9.391729040919037
      ],
      [
        "▁chủ_yếu",
        -9.392228138418556
      ],
      [
        "▁Quốc_hội",
        -9.393095667219228
      ],
      [
        "▁gà",
        -9.393714680929024
      ],
      [
        "▁Quản_lý",
        -9.394504614127904
      ],
      [
        "▁Cùng",
        -9.395538055370352
      ],
      [
        "▁Công_an",
        -9.39610390895515
      ],
      [
        "▁địa_điểm",
        -9.39896525985204
      ],
      [
        "▁Đặc_biệt",
        -9.39934844643175
      ],
      [
        "▁Google",
        -9.399553739438456
      ],
      [
        "▁28",
        -9.399986730278336
      ],
      [
        "Chủ_đề",
        -9.400139796015075
      ],
      [
        "Chia_sẻ",
        -9.401336925030083
      ],
      [
        "▁Đại",
        -9.401620397638874
      ],
      [
        "▁Vé",
        -9.401672694815446
      ],
      [
        "▁khắc_phục",
        -9.40270204510949
      ],
      [
        "▁27",
        -9.40357661514479
      ],
      [
        "▁Hắn",
        -9.404447392758048
      ],
      [
        "▁kem",
        -9.404733900881254
      ],
      [
        "▁thẳng",
        -9.405808229602096
      ],
      [
        "▁dịp",
        -9.409710554662189
      ],
      [
        "▁địa_bàn",
        -9.410923906606824
      ],
      [
        "▁duy_trì",
        -9.410975307509284
      ],
      [
        "▁sang_trọng",
        -9.412402205292526
      ],
      [
        "▁thú_vị",
        -9.413353523377909
      ],
      [
        "▁chủ_đề",
        -9.413778147342867
      ],
      [
        "▁lợi",
        -9.414667737333712
      ],
      [
        "▁khai_thác",
        -9.415497914265192
      ],
      [
        "▁Website",
        -9.416843011114311
      ],
      [
        "▁Vì_vậy",
        -9.417383039450854
      ],
      [
        "▁phân_tích",
        -9.417520761311703
      ],
      [
        "▁trà",
        -9.417737991385971
      ],
      [
        "▁nhẹ_nhàng",
        -9.417824746413627
      ],
      [
        "▁2011",
        -9.41933942686968
      ],
      [
        "▁hè",
        -9.41983196749791
      ],
      [
        "▁thở",
        -9.420103514480576
      ],
      [
        "▁tươi",
        -9.420158799103463
      ],
      [
        "▁luật",
        -9.420395423596604
      ],
      [
        "▁bảo_mật",
        -9.421084071838816
      ],
      [
        "▁xác_nhận",
        -9.422206678268566
      ],
      [
        "▁tiểu",
        -9.422755025049131
      ],
      [
        "▁nhà_hàng",
        -9.424542896940842
      ],
      [
        "▁Tổ_chức",
        -9.425379961478043
      ],
      [
        "▁giáo_viên",
        -9.425400726794392
      ],
      [
        "▁gan",
        -9.42565589734255
      ],
      [
        "▁hội",
        -9.42794460892774
      ],
      [
        "▁phường",
        -9.42976491574949
      ],
      [
        "▁ôm",
        -9.430279896557549
      ],
      [
        "▁góc",
        -9.430598236725976
      ],
      [
        "▁Đoàn",
        -9.431592874280724
      ],
      [
        "▁sửa_chữa",
        -9.43202585916596
      ],
      [
        "tại_sao",
        -9.433495378464666
      ],
      [
        "▁thi_công",
        -9.43502992724594
      ],
      [
        "▁đời_sống",
        -9.435220816682651
      ],
      [
        "ờ",
        -9.435690542434909
      ],
      [
        "▁chấp_nhận",
        -9.436365075675564
      ],
      [
        "▁Lê",
        -9.436465501190304
      ],
      [
        "▁Đi",
        -9.436894057221936
      ],
      [
        "▁liên_kết",
        -9.43756811750787
      ],
      [
        "▁trang_bị",
        -9.437575141412765
      ],
      [
        "▁Văn",
        -9.438730721338578
      ],
      [
        "▁cố",
        -9.439167210864866
      ],
      [
        "▁Mình",
        -9.440553469240244
      ],
      [
        "▁sắc",
        -9.4405560729288
      ],
      [
        "▁xuất_khẩu",
        -9.440690154670987
      ],
      [
        "▁tình_cảm",
        -9.44112368875503
      ],
      [
        "▁tình_dục",
        -9.441817241747309
      ],
      [
        "▁truyền",
        -9.442859756204106
      ],
      [
        "▁phương_tiện",
        -9.44351459599605
      ],
      [
        "▁mày",
        -9.44375147391256
      ],
      [
        "▁cặp",
        -9.444515532803337
      ],
      [
        "▁cuộc_đời",
        -9.444561389242716
      ],
      [
        "▁mát",
        -9.445973271792951
      ],
      [
        "▁hiển_thị",
        -9.446592233981018
      ],
      [
        "▁làng",
        -9.447631532210782
      ],
      [
        "▁nghèo",
        -9.45051893394134
      ],
      [
        "▁quanh",
        -9.450519943302083
      ],
      [
        "▁bảo_hiểm",
        -9.451990042749449
      ],
      [
        "▁đẩy",
        -9.452181277150816
      ],
      [
        "▁Minh",
        -9.45357238819198
      ],
      [
        "▁bốn",
        -9.453673056652978
      ],
      [
        "▁TPHCM",
        -9.454285736222513
      ],
      [
        "▁sát",
        -9.45428978522403
      ],
      [
        "▁Trung_ương",
        -9.454396895993442
      ],
      [
        "▁di_chuyển",
        -9.4564969021598
      ],
      [
        "▁kiến_trúc",
        -9.457476435801892
      ],
      [
        "▁sẵn_sàng",
        -9.45876575466864
      ],
      [
        "▁chiến_lược",
        -9.459395815957516
      ],
      [
        "ợ_chồng",
        -9.45982733945092
      ],
      [
        "▁vườn",
        -9.460765931861618
      ],
      [
        "▁đón",
        -9.461122536292953
      ],
      [
        "▁CP",
        -9.461942332481406
      ],
      [
        "▁I",
        -9.46254587036443
      ],
      [
        "▁tác_giả",
        -9.464786349498617
      ],
      [
        "▁Như",
        -9.46624901565572
      ],
      [
        "▁bóng_đá",
        -9.466605298148048
      ],
      [
        "▁tạm",
        -9.467462877911602
      ],
      [
        "▁vai",
        -9.469095153676973
      ],
      [
        "▁tai",
        -9.469203606282884
      ],
      [
        "▁Âu",
        -9.46922433588908
      ],
      [
        "▁GP",
        -9.470706286377627
      ],
      [
        "▁nha",
        -9.472064207163095
      ],
      [
        "Giới_thiệu",
        -9.47299692962698
      ],
      [
        "▁phong",
        -9.474912269668907
      ],
      [
        "▁cảm_ơn",
        -9.47543619776146
      ],
      [
        "▁lẫn",
        -9.477390426136276
      ],
      [
        "▁hoàn_hảo",
        -9.478398898973843
      ],
      [
        "▁Nội_dung",
        -9.480558699616257
      ],
      [
        "▁dịch",
        -9.48186497624052
      ],
      [
        "hữu_ích",
        -9.483908510100278
      ],
      [
        "▁Phần",
        -9.484527388373383
      ],
      [
        "▁định",
        -9.485298009054087
      ],
      [
        "▁thức_ăn",
        -9.485305525384849
      ],
      [
        "▁khuyên",
        -9.485576100740325
      ],
      [
        "▁mô_hình",
        -9.486137841567675
      ],
      [
        "▁đa_dạng",
        -9.486251604472788
      ],
      [
        "▁thương",
        -9.487048541666184
      ],
      [
        "▁điều_khiển",
        -9.487462829363324
      ],
      [
        "▁chính_quyền",
        -9.487638723086498
      ],
      [
        "▁bộ_phận",
        -9.489106973428326
      ],
      [
        "ự_án",
        -9.49078225012514
      ],
      [
        "▁Khoa_học",
        -9.491166126418936
      ],
      [
        "▁giỏi",
        -9.491827019857318
      ],
      [
        "▁giây",
        -9.49307938150033
      ],
      [
        "▁khối",
        -9.493344401336005
      ],
      [
        "biệt_thự",
        -9.494721969508994
      ],
      [
        "▁thành_phần",
        -9.495852507760466
      ],
      [
        "▁vật",
        -9.496504825085555
      ],
      [
        "▁Ngân_hàng",
        -9.499175542401437
      ],
      [
        "►",
        -9.499515350768416
      ],
      [
        "▁ấm",
        -9.500503840332954
      ],
      [
        "▁thích_hợp",
        -9.500765394784723
      ],
      [
        "▁Ủy_ban",
        -9.501764370854485
      ],
      [
        "▁dấu",
        -9.50205397420761
      ],
      [
        "▁Ngay",
        -9.502277035482283
      ],
      [
        "Sử_dụng",
        -9.50424031841194
      ],
      [
        "▁kết_thúc",
        -9.50427023555383
      ],
      [
        "_lòng",
        -9.504522495308825
      ],
      [
        "▁Hội_đồng",
        -9.50486076163384
      ],
      [
        "▁video",
        -9.505063658901983
      ],
      [
        "▁xây",
        -9.505068376504596
      ],
      [
        "▁xu_hướng",
        -9.50545327579824
      ],
      [
        "Thành_phố",
        -9.506322872034932
      ],
      [
        "độc_đáo",
        -9.506605689078487
      ],
      [
        "▁lưu",
        -9.507903141652854
      ],
      [
        "▁thu_nhập",
        -9.508497483667298
      ],
      [
        "▁điều_hành",
        -9.509983552264227
      ],
      [
        "▁phiên_bản",
        -9.510178662618316
      ],
      [
        "_vị",
        -9.512243950953838
      ],
      [
        "▁29",
        -9.51227033900299
      ],
      [
        "▁trang_trí",
        -9.514111335250314
      ],
      [
        "CỦA",
        -9.516431088307016
      ],
      [
        "▁bố",
        -9.51661399761785
      ],
      [
        "▁thơ",
        -9.517347828499886
      ],
      [
        "▁già",
        -9.518189628529104
      ],
      [
        "ăn_uống",
        -9.51844844064622
      ],
      [
        "▁phi",
        -9.519650904288934
      ],
      [
        "▁lối",
        -9.520711455655864
      ],
      [
        "tồn_tại",
        -9.52076242444674
      ],
      [
        "▁ưu_đãi",
        -9.52102419229469
      ],
      [
        "nêu",
        -9.521135327553331
      ],
      [
        "ơi",
        -9.522658813516706
      ],
      [
        "▁60",
        -9.522776967546507
      ],
      [
        "_vậy",
        -9.523028395285364
      ],
      [
        "▁chảy",
        -9.523325865808635
      ],
      [
        "▁phát_hành",
        -9.523573502042172
      ],
      [
        "▁thiên_nhiên",
        -9.52485832154807
      ],
      [
        "_này",
        -9.524865004125502
      ],
      [
        "▁Diễn_đàn",
        -9.525246469552863
      ],
      [
        "▁tin_tức",
        -9.525810156944411
      ],
      [
        "▁đội_ngũ",
        -9.526191879063113
      ],
      [
        "▁sinh_hoạt",
        -9.526975447739233
      ],
      [
        "▁TT",
        -9.527316858031329
      ],
      [
        "▁danh_sách",
        -9.52841998425991
      ],
      [
        "▁2010",
        -9.529475671736373
      ],
      [
        "▁tắt",
        -9.53026554807535
      ],
      [
        "▁Quý_khách",
        -9.532661009429956
      ],
      [
        "ỡ",
        -9.532742722062336
      ],
      [
        "▁thiệt",
        -9.5341303587981
      ],
      [
        "▁đề",
        -9.535044643878566
      ],
      [
        "▁ngược",
        -9.53552652191158
      ],
      [
        "▁Hoàng",
        -9.536393139202415
      ],
      [
        "▁âm_thanh",
        -9.536946066980173
      ],
      [
        "v",
        -9.539315794042986
      ],
      [
        "▁Quyết_định",
        -9.5413604026319
      ],
      [
        "▁ra_mắt",
        -9.541475691185704
      ],
      [
        "▁vì_vậy",
        -9.54325169721734
      ],
      [
        "▁Top",
        -9.54384851467658
      ],
      [
        "▁Lý",
        -9.544337787535143
      ],
      [
        "▁Chị",
        -9.54660961507252
      ],
      [
        "▁gói",
        -9.546707130607915
      ],
      [
        "Thành_viên",
        -9.5486100481439
      ],
      [
        "▁tỷ_lệ",
        -9.549396742954965
      ],
      [
        "▁bãi",
        -9.549873092500633
      ],
      [
        "▁nhân_vật",
        -9.550089192019932
      ],
      [
        "_ra",
        -9.550247305267714
      ],
      [
        "▁chợ",
        -9.551601360859806
      ],
      [
        "▁Hôm",
        -9.551874980736171
      ],
      [
        "▁giám_sát",
        -9.553180723181608
      ],
      [
        "▁trao",
        -9.553614962125058
      ],
      [
        "▁thắng",
        -9.555232352456782
      ],
      [
        "▁bảo_hành",
        -9.55583722867153
      ],
      [
        "_vẻ",
        -9.555881779038842
      ],
      [
        "▁tăng_trưởng",
        -9.556214944924054
      ],
      [
        "▁chuyên_môn",
        -9.55665878073994
      ],
      [
        "▁ban_hành",
        -9.557094046194512
      ],
      [
        "A",
        -9.55725332939963
      ],
      [
        "▁bờ",
        -9.55729487664691
      ],
      [
        "▁Sao",
        -9.557482616398262
      ],
      [
        "▁Điểm",
        -9.558608654454234
      ],
      [
        "Bộ_trưởng",
        -9.558774862029903
      ],
      [
        "▁động",
        -9.558819977384172
      ],
      [
        "▁E",
        -9.559221908276117
      ],
      [
        "▁tế_bào",
        -9.560004901742444
      ],
      [
        "▁pháp",
        -9.5600749361454
      ],
      [
        "▁phẫu_thuật",
        -9.56017693433762
      ],
      [
        "▁Ngoài",
        -9.560220950584526
      ],
      [
        "▁may_mắn",
        -9.560850198411377
      ],
      [
        "▁phân_phối",
        -9.5608653953938
      ],
      [
        "▁ngang",
        -9.560931465960357
      ],
      [
        "▁kích_thước",
        -9.561240399035546
      ],
      [
        "▁giải_trí",
        -9.56165810991512
      ],
      [
        "▁tuy",
        -9.562431935420529
      ],
      [
        "▁hưởng",
        -9.562885658806666
      ],
      [
        "▁ủng_hộ",
        -9.56304170429016
      ],
      [
        "tốt_nghiệp",
        -9.563284949147487
      ],
      [
        "▁lửa",
        -9.563992278810776
      ],
      [
        "▁chỉ_đạo",
        -9.566965585413731
      ],
      [
        "_khoản",
        -9.566979762959894
      ],
      [
        "▁tỉ",
        -9.567997051653837
      ],
      [
        "▁tuyệt",
        -9.570437146108532
      ],
      [
        "▁công_cụ",
        -9.570456511711628
      ],
      [
        "▁hộp",
        -9.57053938734846
      ],
      [
        "Giám_đốc",
        -9.571222338921071
      ],
      [
        "▁Đồng",
        -9.57245795442672
      ],
      [
        "▁Phải",
        -9.573326187609362
      ],
      [
        "vui_vẻ",
        -9.574109529685806
      ],
      [
        "▁che",
        -9.574620727468144
      ],
      [
        "▁web",
        -9.5747271146105
      ],
      [
        "con_trai",
        -9.574874682816182
      ],
      [
        "▁tu",
        -9.574900345194424
      ],
      [
        "▁loài",
        -9.575716816186658
      ],
      [
        "▁chào",
        -9.576517278280004
      ],
      [
        "▁lộ",
        -9.578009753070972
      ],
      [
        "▁chứng_nhận",
        -9.579922368511545
      ],
      [
        "▁cam_kết",
        -9.579994500343425
      ],
      [
        "▁tác_phẩm",
        -9.582770332547094
      ],
      [
        "▁Cậu",
        -9.583560776764957
      ],
      [
        "▁bảo_đảm",
        -9.58366823947255
      ],
      [
        "▁hình_thành",
        -9.58439588507395
      ],
      [
        "▁trao_đổi",
        -9.584400373725469
      ],
      [
        "▁góp_phần",
        -9.585924944568864
      ],
      [
        "▁di_động",
        -9.58624343622584
      ],
      [
        "_hơi",
        -9.58668349929482
      ],
      [
        "▁thơm",
        -9.587473997750129
      ],
      [
        "▁ngài",
        -9.587730346819187
      ],
      [
        "▁nông_nghiệp",
        -9.588288023372854
      ],
      [
        "▁trứng",
        -9.5894272226436
      ],
      [
        "▁bật",
        -9.590304588283628
      ],
      [
        "▁trang_web",
        -9.590656640105903
      ],
      [
        "▁Thái_Lan",
        -9.592765481672346
      ],
      [
        "▁tiêu",
        -9.593284024230735
      ],
      [
        "▁Nên",
        -9.593440430592777
      ],
      [
        "▁Tổng_thống",
        -9.593571223045862
      ],
      [
        "▁giải_thích",
        -9.594071843488033
      ],
      [
        "▁thằng",
        -9.594451762910923
      ],
      [
        "▁thanh_niên",
        -9.595448008455568
      ],
      [
        "▁tờ",
        -9.595808331547705
      ],
      [
        "▁Y",
        -9.59663936219768
      ],
      [
        "▁khớp",
        -9.597134179793771
      ],
      [
        "▁Đọc",
        -9.597422688179831
      ],
      [
        "▁sơn",
        -9.598372764512632
      ],
      [
        "▁vết",
        -9.598795084528447
      ],
      [
        "▁bột",
        -9.600422357098171
      ],
      [
        "▁một_vài",
        -9.600590101267604
      ],
      [
        "xem_xét",
        -9.600822804159389
      ],
      [
        "▁đóng_góp",
        -9.600989917027809
      ],
      [
        "▁Cơ_quan",
        -9.601792700650655
      ],
      [
        "▁tuyệt_đối",
        -9.60194021521207
      ],
      [
        "anh_em",
        -9.602638546307618
      ],
      [
        "▁Nước",
        -9.60495520136214
      ],
      [
        "▁cha_mẹ",
        -9.605090579805156
      ],
      [
        "▁đáp",
        -9.60549594227144
      ],
      [
        "▁mong",
        -9.606060646477475
      ],
      [
        "▁khám_phá",
        -9.606837890015916
      ],
      [
        "▁m2",
        -9.607646419312028
      ],
      [
        "▁lông",
        -9.608008242512392
      ],
      [
        "▁hoàn_thiện",
        -9.60888766713596
      ],
      [
        "▁phóng",
        -9.608942217092704
      ],
      [
        "▁quy_hoạch",
        -9.609053804867626
      ],
      [
        "▁yếu",
        -9.609159015940843
      ],
      [
        "▁mức_độ",
        -9.609305088697576
      ],
      [
        "▁k",
        -9.611463685616217
      ],
      [
        "▁tương_tự",
        -9.61323280194757
      ],
      [
        "▁Hoạt_động",
        -9.613644569074658
      ],
      [
        "▁Trần",
        -9.61451376316457
      ],
      [
        "▁xét",
        -9.614679242945233
      ],
      [
        "▁Nhất",
        -9.61641731066243
      ],
      [
        "▁ma",
        -9.61659763036957
      ],
      [
        "tiện_ích",
        -9.616778746615603
      ],
      [
        "_cả",
        -9.617080274524074
      ],
      [
        "▁thông",
        -9.61733207259163
      ],
      [
        "▁nấu",
        -9.619130394899258
      ],
      [
        "▁truyền_thông",
        -9.619493368148122
      ],
      [
        "P",
        -9.620053978062346
      ],
      [
        "ổ",
        -9.622973541010454
      ],
      [
        "▁quần",
        -9.624009429138106
      ],
      [
        "▁lực",
        -9.624354877871715
      ],
      [
        "▁Thêm",
        -9.625870026737978
      ],
      [
        "_tay",
        -9.626149618178976
      ],
      [
        "▁hợp",
        -9.626353452234708
      ],
      [
        "▁gắn",
        -9.62750951189646
      ],
      [
        "▁Internet",
        -9.62926245628389
      ],
      [
        "_điểm",
        -9.629328022450904
      ],
      [
        "▁Cầu",
        -9.63002851384948
      ],
      [
        "thắc_mắc",
        -9.630643369289611
      ],
      [
        "▁Thế_giới",
        -9.630912543213991
      ],
      [
        "▁xuất",
        -9.63235974932206
      ],
      [
        "▁Bản",
        -9.632865999578597
      ],
      [
        "Hội_nghị",
        -9.632919374600576
      ],
      [
        "ẽ",
        -9.633622273215316
      ],
      [
        "▁chó",
        -9.634270061064184
      ],
      [
        "▁mỡ",
        -9.634905380361753
      ],
      [
        "▁tổng",
        -9.635100456363956
      ],
      [
        "▁mãi",
        -9.63688952811396
      ],
      [
        "▁hết_sức",
        -9.637210241436328
      ],
      [
        "▁Văn_hóa",
        -9.63730530223914
      ],
      [
        "_dù",
        -9.640245604329028
      ],
      [
        "▁cổ_phần",
        -9.64183117638804
      ],
      [
        "▁kho",
        -9.642912385662203
      ],
      [
        "▁trừ",
        -9.64299050133592
      ],
      [
        "_dụng",
        -9.643948236999842
      ],
      [
        "_đường",
        -9.64519613075588
      ],
      [
        "▁Viện",
        -9.646595302045965
      ],
      [
        "hài_lòng",
        -9.64738064403238
      ],
      [
        "▁thuận_lợi",
        -9.647569043690725
      ],
      [
        "▁Thông_báo",
        -9.648694095110498
      ],
      [
        "▁Lời",
        -9.649656840160004
      ],
      [
        "▁tuyển",
        -9.649897758675865
      ],
      [
        "▁Mặc_dù",
        -9.650277618075869
      ],
      [
        "▁tuy_nhiên",
        -9.65031107932509
      ],
      [
        "_mắt",
        -9.651332825059988
      ],
      [
        "▁hại",
        -9.65253522501237
      ],
      [
        "▁Vào",
        -9.6538110906428
      ],
      [
        "▁Văn_phòng",
        -9.654812701657784
      ],
      [
        "▁não",
        -9.65731491422402
      ],
      [
        "T",
        -9.65747880623623
      ],
      [
        "▁vặt",
        -9.657706855733132
      ],
      [
        "▁giúp_đỡ",
        -9.659321626738588
      ],
      [
        "▁nhắc",
        -9.660353263242513
      ],
      [
        "▁lắp_đặt",
        -9.660568804114854
      ],
      [
        "vật_liệu",
        -9.660660962057332
      ],
      [
        "▁tự_tin",
        -9.66184043432936
      ],
      [
        "chục",
        -9.663293813428504
      ],
      [
        "▁Kinh_tế",
        -9.66510855625917
      ],
      [
        "▁quản_trị",
        -9.666139899081726
      ],
      [
        "▁tham_dự",
        -9.667293570395357
      ],
      [
        "▁nỗ",
        -9.667916797707178
      ],
      [
        "▁tin_tưởng",
        -9.668546898014146
      ],
      [
        "▁tư",
        -9.669613724546696
      ],
      [
        "▁Doanh_nghiệp",
        -9.669863578383255
      ],
      [
        "▁tội",
        -9.670681278536408
      ],
      [
        "▁VIỆT",
        -9.670855923291688
      ],
      [
        "▁Kết_quả",
        -9.67110702249609
      ],
      [
        "▁hiện_tượng",
        -9.671804327044708
      ],
      [
        "▁Nghị_định",
        -9.6719580407485
      ],
      [
        "ít_nhất",
        -9.67316007437457
      ],
      [
        "▁quan",
        -9.673167546924844
      ],
      [
        "_gọi",
        -9.674233255526373
      ],
      [
        "_tuổi",
        -9.675142042106168
      ],
      [
        "▁Mua",
        -9.675740937343177
      ],
      [
        "▁triệu_chứng",
        -9.676319362590633
      ],
      [
        "▁thoáng",
        -9.677404247525084
      ],
      [
        "▁khác_biệt",
        -9.678667034132296
      ],
      [
        "▁vận_động",
        -9.68059901348076
      ],
      [
        "▁nhấn",
        -9.681536980759647
      ],
      [
        "▁hy_vọng",
        -9.681697919070633
      ],
      [
        "bỏ_qua",
        -9.682057042812763
      ],
      [
        "▁Cục",
        -9.682171707075929
      ],
      [
        "▁Nhìn",
        -9.682556190657568
      ],
      [
        "▁kênh",
        -9.68400637376144
      ],
      [
        "▁vitamin",
        -9.684151796173348
      ],
      [
        "▁sự_nghiệp",
        -9.68416832080956
      ],
      [
        "▁người_bệnh",
        -9.685012755722155
      ],
      [
        "▁đàn",
        -9.685932939601097
      ],
      [
        "▁Liên_kết",
        -9.686951551234008
      ],
      [
        "▁nhắn",
        -9.687028795883696
      ],
      [
        "▁lợi_nhuận",
        -9.68745567252599
      ],
      [
        "▁Chuyện",
        -9.687744120935466
      ],
      [
        "ớ",
        -9.68808883839351
      ],
      [
        "D",
        -9.68860207053794
      ],
      [
        "l",
        -9.689068394783504
      ],
      [
        "▁bò",
        -9.69020003554369
      ],
      [
        "▁chiến_tranh",
        -9.69061061298883
      ],
      [
        "▁giành",
        -9.690949112898958
      ],
      [
        "nguyên_liệu",
        -9.691513078319112
      ],
      [
        "▁cực_kỳ",
        -9.69191251769282
      ],
      [
        "▁nghiêm_trọng",
        -9.692231473466418
      ],
      [
        "▁bắn",
        -9.693762078437418
      ],
      [
        "▁vỏ",
        -9.695245190985933
      ],
      [
        "▁mơ",
        -9.695725564459872
      ],
      [
        "_dáng",
        -9.69663907315848
      ],
      [
        "▁băng",
        -9.696733999447886
      ],
      [
        "tiếp_theo",
        -9.69693754948669
      ],
      [
        "▁thần",
        -9.698885853449978
      ],
      [
        "_đạo",
        -9.699868821492815
      ],
      [
        "▁Cả",
        -9.6999496753831
      ],
      [
        "▁tham_quan",
        -9.699978336940642
      ],
      [
        "▁thói_quen",
        -9.70029005204468
      ],
      [
        "_trí",
        -9.701498183100034
      ],
      [
        "▁nhảy",
        -9.702514751560477
      ],
      [
        "▁31",
        -9.703030171061434
      ],
      [
        "▁Úc",
        -9.703882169894513
      ],
      [
        "▁quan_sát",
        -9.703985309736751
      ],
      [
        "▁ngã",
        -9.704385254136229
      ],
      [
        "▁Lưu",
        -9.705066564022728
      ],
      [
        "▁chế_biến",
        -9.705221180098764
      ],
      [
        "▁khuôn_mặt",
        -9.705482045891369
      ],
      [
        "▁mua_bán",
        -9.708495841768835
      ],
      [
        "▁Kinh_nghiệm",
        -9.709013692080994
      ],
      [
        "▁xinh_đẹp",
        -9.709262512599755
      ],
      [
        "▁Rất",
        -9.70928500256711
      ],
      [
        "▁camera",
        -9.709636924141202
      ],
      [
        "▁Hồ",
        -9.713519916402308
      ],
      [
        "▁báo_chí",
        -9.714148486511926
      ],
      [
        "sửa_đổi",
        -9.714238180357473
      ],
      [
        "▁chính_phủ",
        -9.714562179646016
      ],
      [
        "▁âm",
        -9.715049788215907
      ],
      [
        "▁Y_tế",
        -9.7162625786178
      ],
      [
        "▁thế_hệ",
        -9.719158575561227
      ],
      [
        "▁lỗ",
        -9.719243014304336
      ],
      [
        "_đời",
        -9.719398843817377
      ],
      [
        "▁bền",
        -9.719544578423658
      ],
      [
        "▁Truyền_thông",
        -9.719758952378838
      ],
      [
        "▁xe_máy",
        -9.72006898453876
      ],
      [
        "▁cộng",
        -9.723214657294411
      ],
      [
        "▁hầu_hết",
        -9.723324846429849
      ],
      [
        "▁ý_tưởng",
        -9.72521043685568
      ],
      [
        "_luật",
        -9.725247139510186
      ],
      [
        "▁thể",
        -9.725467133575176
      ],
      [
        "▁bàn_tay",
        -9.726096954656706
      ],
      [
        "▁chứng_minh",
        -9.726098618212983
      ],
      [
        "▁khai",
        -9.726243676656866
      ],
      [
        "▁Đầu_tư",
        -9.72636671871967
      ],
      [
        "▁nghìn",
        -9.72771272190006
      ],
      [
        "▁dưỡng",
        -9.728127965409676
      ],
      [
        "▁Q.",
        -9.729627464636316
      ],
      [
        "▁2009",
        -9.730351363497356
      ],
      [
        "▁cảm_nhận",
        -9.730709408453691
      ],
      [
        "▁Nhận",
        -9.731337577431496
      ],
      [
        "▁phản_ứng",
        -9.731507001440724
      ],
      [
        "▁cảm_xúc",
        -9.731544343302032
      ],
      [
        "▁lọc",
        -9.731734075356652
      ],
      [
        "▁tuyên_bố",
        -9.732188072982938
      ],
      [
        "_sĩ",
        -9.733399761654256
      ],
      [
        "▁trò_chơi",
        -9.733722286360518
      ],
      [
        "▁nhựa",
        -9.734027653012989
      ],
      [
        "▁Ngươi",
        -9.73457742769215
      ],
      [
        "▁pha",
        -9.735274139258378
      ],
      [
        "▁mềm",
        -9.735975280329187
      ],
      [
        "▁an",
        -9.736257528784698
      ],
      [
        "▁quy",
        -9.73745142388868
      ],
      [
        "▁vỡ",
        -9.740021099052775
      ],
      [
        "▁Thật",
        -9.740645254417808
      ],
      [
        "▁Chọn",
        -9.741255368024076
      ],
      [
        "▁sổ",
        -9.74179367167544
      ],
      [
        "▁Nàng",
        -9.742173867861734
      ],
      [
        "▁Mà",
        -9.743000795231517
      ],
      [
        "▁tâm_lý",
        -9.74368469836805
      ],
      [
        "▁Bảng",
        -9.743726394957104
      ],
      [
        "▁Chưa",
        -9.74428777601465
      ],
      [
        "ui_lòng",
        -9.745193094153102
      ],
      [
        "▁văn",
        -9.745935348206864
      ],
      [
        "▁chiếu",
        -9.746699640561104
      ],
      [
        "Bản_quyền",
        -9.74840706046771
      ],
      [
        "Ề",
        -9.748480721631344
      ],
      [
        "▁lái_xe",
        -9.748927105589704
      ],
      [
        "▁Dương",
        -9.749220793661216
      ],
      [
        "▁Đánh_giá",
        -9.749590353037776
      ],
      [
        "▁Tìm",
        -9.75125298940025
      ],
      [
        "▁quê",
        -9.752092386957475
      ],
      [
        "Thiết_bị",
        -9.752660202899111
      ],
      [
        "▁tấn",
        -9.753223211232994
      ],
      [
        "▁thí_sinh",
        -9.75342960901057
      ],
      [
        "▁Đúng",
        -9.755734402157682
      ],
      [
        "▁gọn",
        -9.756404843869296
      ],
      [
        "▁U",
        -9.75642054762488
      ],
      [
        "▁giày",
        -9.756525633739278
      ],
      [
        "▁mặc_dù",
        -9.756774140674043
      ],
      [
        "ài_đặt",
        -9.758165561549577
      ],
      [
        "▁xử",
        -9.758356893352856
      ],
      [
        "▁cẩn_thận",
        -9.758928245324048
      ],
      [
        "khó_chịu",
        -9.75919953128538
      ],
      [
        "▁nhiệt_độ",
        -9.760557278601985
      ],
      [
        "▁ngôn_ngữ",
        -9.762389042033654
      ],
      [
        "▁quy_trình",
        -9.764273481257582
      ],
      [
        "ái",
        -9.764548558867352
      ],
      [
        "▁Phát_triển",
        -9.7648328049187
      ],
      [
        "▁tưởng",
        -9.764932841670651
      ],
      [
        "▁bụi",
        -9.765200177912378
      ],
      [
        "nam_giới",
        -9.765334295560947
      ],
      [
        "▁sức_mạnh",
        -9.7653724193869
      ],
      [
        "▁Phạm",
        -9.765461233749894
      ],
      [
        "▁kích_thích",
        -9.766525816206396
      ],
      [
        "▁Chi",
        -9.767083453962274
      ],
      [
        "_kiện",
        -9.767134756668208
      ],
      [
        "nh",
        -9.767722814536445
      ],
      [
        "▁cứng",
        -9.767886040739333
      ],
      [
        "▁thủ",
        -9.768044410532989
      ],
      [
        "▁70",
        -9.768401489951016
      ],
      [
        "▁Ăn",
        -9.768488800520258
      ],
      [
        "▁dạ_dày",
        -9.769117151279412
      ],
      [
        "sự_thật",
        -9.76947226865548
      ],
      [
        "▁đối_tác",
        -9.769973539483976
      ],
      [
        "k",
        -9.770257542775765
      ],
      [
        "▁cấm",
        -9.770689660494362
      ],
      [
        "▁Sáng",
        -9.77163141224998
      ],
      [
        "▁tiếp_cận",
        -9.771774268164362
      ],
      [
        "▁kịp",
        -9.772399519169332
      ],
      [
        "▁Thu",
        -9.772495754889931
      ],
      [
        "▁ban_đầu",
        -9.773049120317284
      ],
      [
        "▁Cao",
        -9.773123610115125
      ],
      [
        "▁ngân_sách",
        -9.77346462623234
      ],
      [
        "▁dường_như",
        -9.773678647942877
      ],
      [
        "▁Dân",
        -9.7742108734888
      ],
      [
        "▁kịp_thời",
        -9.77659433456484
      ],
      [
        "▁độc",
        -9.778153548566
      ],
      [
        "▁phương",
        -9.778170280996136
      ],
      [
        "▁công_an",
        -9.77940056290318
      ],
      [
        "▁Hàn",
        -9.779426891088834
      ],
      [
        "▁chín",
        -9.780644626868808
      ],
      [
        "ể",
        -9.782206000968207
      ],
      [
        "▁chứng",
        -9.78289539067349
      ],
      [
        "▁công_khai",
        -9.78425305530834
      ],
      [
        "▁gia_tăng",
        -9.784466361486189
      ],
      [
        "TTTT",
        -9.78511392583401
      ],
      [
        "ất_động_sản",
        -9.78607604597366
      ],
      [
        "▁hứa",
        -9.78848579791737
      ],
      [
        "▁thẩm_quyền",
        -9.788660149302704
      ],
      [
        "▁nhà_máy",
        -9.78871292586162
      ],
      [
        "▁Bảo",
        -9.788924727508844
      ],
      [
        "▁trung",
        -9.78982801457098
      ],
      [
        "▁sóng",
        -9.790059803364487
      ],
      [
        "▁biểu_hiện",
        -9.790487446661023
      ],
      [
        "d",
        -9.791144871603136
      ],
      [
        "▁Qua",
        -9.79139271969259
      ],
      [
        "▁quen",
        -9.791628096761814
      ],
      [
        "▁Singapore",
        -9.791997700644451
      ],
      [
        "▁thủy",
        -9.792188570539755
      ],
      [
        "▁hẹn",
        -9.7929579725114
      ],
      [
        "▁Bằng",
        -9.793427401892856
      ],
      [
        "▁thúc_đẩy",
        -9.793885491852809
      ],
      [
        "▁nút",
        -9.794514639081877
      ],
      [
        "▁trọn",
        -9.794801401742747
      ],
      [
        "▁tiết",
        -9.795312400931044
      ],
      [
        "▁tiệc",
        -9.795973934897736
      ],
      [
        "▁đợi",
        -9.79636535998564
      ],
      [
        "▁chăn",
        -9.797167690717608
      ],
      [
        "▁Nghiên_cứu",
        -9.797530279269449
      ],
      [
        "▁quân_sự",
        -9.798781890146527
      ],
      [
        "▁tổ",
        -9.798922569004093
      ],
      [
        "tín_dụng",
        -9.799078847817563
      ],
      [
        "▁Cuộc",
        -9.799841588582012
      ],
      [
        "▁tai_nạn",
        -9.800690077799535
      ],
      [
        "▁tan",
        -9.8025084571937
      ],
      [
        "▁Như_vậy",
        -9.80404260438052
      ],
      [
        "▁CÁC",
        -9.80409729105167
      ],
      [
        "kỷ_niệm",
        -9.80593222649321
      ],
      [
        "▁buộc",
        -9.806742977965278
      ],
      [
        "_trưởng",
        -9.806955956416958
      ],
      [
        "▁thử_nghiệm",
        -9.808899118905202
      ],
      [
        "▁ép",
        -9.810073191077016
      ],
      [
        "C",
        -9.810320280374464
      ],
      [
        "▁thua",
        -9.810844073705804
      ],
      [
        "▁cột",
        -9.8116662023161
      ],
      [
        "ào",
        -9.8124204612096
      ],
      [
        "▁nổ",
        -9.812852599664946
      ],
      [
        "mệt_mỏi",
        -9.814044754441332
      ],
      [
        "▁tiếp_xúc",
        -9.81482549793625
      ],
      [
        "▁kín",
        -9.81512240729958
      ],
      [
        "▁chiến_thắng",
        -9.815330304566702
      ],
      [
        "▁toàn_quốc",
        -9.816625628067886
      ],
      [
        "tuyển_dụng",
        -9.817265323454611
      ],
      [
        "▁vua",
        -9.817311892245703
      ],
      [
        "▁trung_bình",
        -9.818575779887304
      ],
      [
        "▁đợt",
        -9.818631737498484
      ],
      [
        "▁pin",
        -9.820200055213816
      ],
      [
        "▁mảnh",
        -9.820307643554369
      ],
      [
        "▁cổng",
        -9.821164847606116
      ],
      [
        "▁treo",
        -9.821381268841508
      ],
      [
        "▁mặt_trời",
        -9.821642418689128
      ],
      [
        "▁mua_sắm",
        -9.822386787567206
      ],
      [
        "_vụ",
        -9.823437817706369
      ],
      [
        "▁ĐH",
        -9.825026516555566
      ],
      [
        "▁quốc",
        -9.8254531560684
      ],
      [
        "▁Thầy",
        -9.826600846684222
      ],
      [
        "▁phức_tạp",
        -9.827306284863516
      ],
      [
        "▁hành_trình",
        -9.828554365941796
      ],
      [
        "_cấp",
        -9.830184560146389
      ],
      [
        "▁quan_điểm",
        -9.830895704658134
      ],
      [
        "▁tỏ",
        -9.83173273255963
      ],
      [
        "▁sắt",
        -9.832357599973678
      ],
      [
        "▁Hải_Phòng",
        -9.832357783644811
      ],
      [
        "▁Thanh",
        -9.83256046245892
      ],
      [
        "▁Hay",
        -9.833017235819137
      ],
      [
        "▁tù",
        -9.833777966658532
      ],
      [
        "▁vải",
        -9.83462031722491
      ],
      [
        "▁tình_huống",
        -9.835237002536116
      ],
      [
        "▁truyền_hình",
        -9.83537691714669
      ],
      [
        "▁ngờ",
        -9.835952669332
      ],
      [
        "▁trưa",
        -9.836310061282257
      ],
      [
        "▁tốn",
        -9.83760614542369
      ],
      [
        "▁khung",
        -9.837742716798354
      ],
      [
        "▁Danh_sách",
        -9.837975839319023
      ],
      [
        "▁xưa",
        -9.83970413366369
      ],
      [
        "▁Mẫu",
        -9.839801838892644
      ],
      [
        "▁đòi_hỏi",
        -9.841197921756583
      ],
      [
        "nông_thôn",
        -9.841422920307632
      ],
      [
        "Thông_tư",
        -9.841671017907318
      ],
      [
        "▁ống",
        -9.84197018303486
      ],
      [
        "▁An",
        -9.84235405891502
      ],
      [
        "▁tổn_thương",
        -9.843255078415035
      ],
      [
        "▁khán_giả",
        -9.843517532587017
      ],
      [
        "▁áp_lực",
        -9.84422677140588
      ],
      [
        "▁Lễ",
        -9.846353792769102
      ],
      [
        "▁hương",
        -9.846943428834493
      ],
      [
        "▁thép",
        -9.846953158531582
      ],
      [
        "▁cách_mạng",
        -9.847043317277944
      ],
      [
        "▁thưởng",
        -9.847199531917084
      ],
      [
        "▁loại_bỏ",
        -9.847523105582754
      ],
      [
        "_thai",
        -9.848438583370111
      ],
      [
        "▁pháp_lý",
        -9.848558152418397
      ],
      [
        "▁mục",
        -9.848562521785883
      ],
      [
        "▁sứ",
        -9.848810560050335
      ],
      [
        "▁Đặt",
        -9.849404186525176
      ],
      [
        "đổi_mới",
        -9.850615735082515
      ],
      [
        "▁tử",
        -9.851406717711503
      ],
      [
        "▁hôn",
        -9.852148757734096
      ],
      [
        "▁Q",
        -9.852281325214282
      ],
      [
        "▁thực",
        -9.853011203871972
      ],
      [
        "▁Chúc",
        -9.853321641413595
      ],
      [
        "▁Đào_tạo",
        -9.853353378455
      ],
      [
        "▁súng",
        -9.854003209468054
      ],
      [
        "▁THPT",
        -9.854027403252486
      ],
      [
        "▁Video",
        -9.854622392924767
      ],
      [
        "▁toàn_cầu",
        -9.855611277433326
      ],
      [
        "_thức",
        -9.857186204640197
      ],
      [
        "▁ngón",
        -9.859002664432785
      ],
      [
        "▁mịn",
        -9.860055912005464
      ],
      [
        "sai_lầm",
        -9.860296996415276
      ],
      [
        "▁vì_thế",
        -9.86049292680354
      ],
      [
        "▁chùa",
        -9.86123562924366
      ],
      [
        "▁rủi_ro",
        -9.862874936871032
      ],
      [
        "▁chủ_động",
        -9.862987701453475
      ],
      [
        "▁chứng_khoán",
        -9.86379550585428
      ],
      [
        "_lý",
        -9.864184003900728
      ],
      [
        "▁vẽ",
        -9.865226298621296
      ],
      [
        "▁chiến_đấu",
        -9.86527045555018
      ],
      [
        "_lệ",
        -9.865361550899973
      ],
      [
        "▁Dưới",
        -9.86568622019644
      ],
      [
        "Bệnh_viện",
        -9.865871406135794
      ],
      [
        "▁Nha_Trang",
        -9.86783727598118
      ],
      [
        "nhận_xét",
        -9.86795525327815
      ],
      [
        "_ích",
        -9.867968496214027
      ],
      [
        "▁cảnh_sát",
        -9.868129674402375
      ],
      [
        "▁ngắm",
        -9.86835692592274
      ],
      [
        "▁kết",
        -9.868555253507852
      ],
      [
        "▁đốt",
        -9.868617902191705
      ],
      [
        "▁yên",
        -9.869763562159145
      ],
      [
        "▁đối_thủ",
        -9.870440723654191
      ],
      [
        "▁tung",
        -9.871813545505429
      ],
      [
        "▁Tầng",
        -9.872594324995092
      ],
      [
        "▁khổ",
        -9.872826609622312
      ],
      [
        "▁Thiên_Chúa",
        -9.87318170415637
      ],
      [
        "▁đập",
        -9.873653638744694
      ],
      [
        "▁hạng",
        -9.874280781862144
      ],
      [
        "▁Phong",
        -9.87465617860181
      ],
      [
        "▁Bây_giờ",
        -9.876890123280102
      ],
      [
        "▁Hoặc",
        -9.878166256314667
      ],
      [
        "▁căng_thẳng",
        -9.878765027846532
      ],
      [
        "ân_bay",
        -9.879052669670344
      ],
      [
        "▁Lần",
        -9.8794192775018
      ],
      [
        "_sỹ",
        -9.881652546028128
      ],
      [
        "▁hành",
        -9.882083161659509
      ],
      [
        "▁thông_thường",
        -9.882119478766692
      ],
      [
        "▁dương_vật",
        -9.88258266885509
      ],
      [
        "▁nguyên_tắc",
        -9.882852276200405
      ],
      [
        "_sống",
        -9.883200465790422
      ],
      [
        "▁Huế",
        -9.883275515117484
      ],
      [
        "▁thừa",
        -9.883601467735009
      ],
      [
        "▁quy_mô",
        -9.88515662079627
      ],
      [
        "diễn_viên",
        -9.885611805135913
      ],
      [
        "á",
        -9.886768535710384
      ],
      [
        "▁cà",
        -9.88796698090364
      ],
      [
        "▁Đề",
        -9.888210975709011
      ],
      [
        "▁Của",
        -9.888750904926466
      ],
      [
        "chất_liệu",
        -9.888785355654695
      ],
      [
        "▁trạng_thái",
        -9.889998395616772
      ],
      [
        "▁tái",
        -9.890293292863811
      ],
      [
        "▁trình_độ",
        -9.891052166034498
      ],
      [
        "▁P.",
        -9.89117953701344
      ],
      [
        "▁Phương_pháp",
        -9.891230766151336
      ],
      [
        "▁yêu_thương",
        -9.89235011796001
      ],
      [
        "▁Phương",
        -9.89343855208372
      ],
      [
        "▁SEO",
        -9.893616387566
      ],
      [
        "▁tài",
        -9.895128430201265
      ],
      [
        "▁Ấn_Độ",
        -9.89571452957104
      ],
      [
        "▁trái_tim",
        -9.897433234326888
      ],
      [
        "▁lừa",
        -9.89749224234474
      ],
      [
        "▁vận_hành",
        -9.898019155716613
      ],
      [
        "_ý",
        -9.89813773679545
      ],
      [
        "▁khúc",
        -9.89913395751847
      ],
      [
        "▁2008",
        -9.89922549873458
      ],
      [
        "▁vũ_khí",
        -9.899237246508338
      ],
      [
        "▁Thư",
        -9.899304885100252
      ],
      [
        "▁cửa_sổ",
        -9.89975134628116
      ],
      [
        "▁rộng_rãi",
        -9.900536249014651
      ],
      [
        "▁sưu_tập",
        -9.90126179825544
      ],
      [
        "▁khởi",
        -9.901518927914037
      ],
      [
        "_lửa",
        -9.901535623532906
      ],
      [
        "▁thất_bại",
        -9.9045887024436
      ],
      [
        "_ta",
        -9.904670067557989
      ],
      [
        "_biết",
        -9.90489794163739
      ],
      [
        "▁người_yêu",
        -9.905152017205255
      ],
      [
        "▁90",
        -9.905355098285314
      ],
      [
        "▁bí_mật",
        -9.905559836600824
      ],
      [
        "▁200",
        -9.905850060649108
      ],
      [
        "lâu_dài",
        -9.90586594806961
      ],
      [
        "▁TR",
        -9.90602555325621
      ],
      [
        "▁giao_tiếp",
        -9.906606226085332
      ],
      [
        "▁DN",
        -9.90724532621413
      ],
      [
        "▁lô",
        -9.907482367541254
      ],
      [
        "_sự",
        -9.910534295429752
      ],
      [
        "▁đo",
        -9.91140205165403
      ],
      [
        "_ch",
        -9.911589367816624
      ],
      [
        "▁35",
        -9.911662589276448
      ],
      [
        "▁Tuy",
        -9.911739671721577
      ],
      [
        "▁xoay",
        -9.91236327008816
      ],
      [
        "▁trốn",
        -9.912434945943222
      ],
      [
        "▁Samsung",
        -9.91247214850059
      ],
      [
        "▁Thành",
        -9.912569826805816
      ],
      [
        "▁thức",
        -9.912636751903092
      ],
      [
        "▁80",
        -9.912764788940205
      ],
      [
        "▁Viết",
        -9.912918936021464
      ],
      [
        "▁thả",
        -9.913307967621389
      ],
      [
        ">>",
        -9.914211127963757
      ],
      [
        "▁bền_vững",
        -9.915255629788836
      ],
      [
        "▁Nguồn",
        -9.915904697024986
      ],
      [
        "▁lịch",
        -9.91605335562911
      ],
      [
        "đột_nhiên",
        -9.91629260435287
      ],
      [
        "thế_kỷ",
        -9.916939551278784
      ],
      [
        "▁so_sánh",
        -9.91731596351758
      ],
      [
        "▁nước_mắt",
        -9.917856626205689
      ],
      [
        "▁yên_tâm",
        -9.918281874784764
      ],
      [
        "▁đậu",
        -9.918873735495136
      ],
      [
        "▁địa",
        -9.919584252943096
      ],
      [
        "▁ẩm",
        -9.920762359330414
      ],
      [
        "▁Bình_Dương",
        -9.921112213921848
      ],
      [
        "▁Phim",
        -9.92155994299664
      ],
      [
        "▁suy",
        -9.921821895065984
      ],
      [
        "hiệu_lực",
        -9.9221262295434
      ],
      [
        "▁Xã_hội",
        -9.922143018043284
      ],
      [
        "▁sư",
        -9.92388638585382
      ],
      [
        "▁bão",
        -9.924213408008772
      ],
      [
        "Rồi",
        -9.92424377848774
      ],
      [
        "_khấu",
        -9.925688381969197
      ],
      [
        "▁Giờ",
        -9.926134547097869
      ],
      [
        "▁chúc",
        -9.9266948287678
      ],
      [
        "_phố",
        -9.926799091973225
      ],
      [
        "▁Kế_hoạch",
        -9.92740793012486
      ],
      [
        "▁thời_hạn",
        -9.927687532264567
      ],
      [
        "ê",
        -9.93010553465063
      ],
      [
        "▁lái",
        -9.930824438583697
      ],
      [
        "▁xếp",
        -9.933289256497572
      ],
      [
        "_mạch",
        -9.933498541411028
      ],
      [
        "_những",
        -9.933608772010686
      ],
      [
        "▁chuột",
        -9.934449319128472
      ],
      [
        "▁khuyến_mãi",
        -9.934976460850706
      ],
      [
        "▁xuất_sắc",
        -9.936676237329698
      ],
      [
        "▁ĐT",
        -9.93670742885665
      ],
      [
        "▁2019",
        -9.936718287498708
      ],
      [
        "▁ngăn",
        -9.936949372652306
      ],
      [
        "_bộ",
        -9.93731993306038
      ],
      [
        "▁đeo",
        -9.937743022080106
      ],
      [
        "▁tết",
        -9.938190756931206
      ],
      [
        "▁thưởng_thức",
        -9.938198699957413
      ],
      [
        "▁vật_chất",
        -9.938606670802326
      ],
      [
        "▁bớt",
        -9.9412344479852
      ],
      [
        "▁xuyên",
        -9.941941760747047
      ],
      [
        "▁bố_mẹ",
        -9.94212718528425
      ],
      [
        "▁hạ_tầng",
        -9.944118742621482
      ],
      [
        "▁Mã",
        -9.946453165320245
      ],
      [
        "Hiện_tại",
        -9.946869621848826
      ],
      [
        "_lạnh",
        -9.94687078753044
      ],
      [
        "▁độc_lập",
        -9.947220802516291
      ],
      [
        "▁xóa",
        -9.947236457823545
      ],
      [
        "▁Nơi",
        -9.94727423231514
      ],
      [
        "▁Quốc_gia",
        -9.947615923499962
      ],
      [
        "▁thi_hành",
        -9.948001781343711
      ],
      [
        "▁Kỳ",
        -9.94813611136086
      ],
      [
        "_gói",
        -9.948230728902333
      ],
      [
        "▁quỹ",
        -9.949158493235778
      ],
      [
        "▁Trường_hợp",
        -9.950054854409276
      ],
      [
        "▁cầu_thủ",
        -9.950584795876038
      ],
      [
        "▁đào",
        -9.95099936894226
      ],
      [
        "▁thời_tiết",
        -9.951758632879852
      ],
      [
        "▁Triều_Tiên",
        -9.95216242240576
      ],
      [
        "ngọn",
        -9.952278360877036
      ],
      [
        "▁lệnh",
        -9.953117020480478
      ],
      [
        "TẠI",
        -9.953310000375335
      ],
      [
        "▁mái",
        -9.95607932549962
      ],
      [
        "▁truy",
        -9.95619537594315
      ],
      [
        "▁thái_độ",
        -9.956891850395907
      ],
      [
        "Báo_cáo",
        -9.957360651345134
      ],
      [
        "_kiến",
        -9.957829389075822
      ],
      [
        "▁Apple",
        -9.957835864211155
      ],
      [
        "▁sắp_xếp",
        -9.957916470408202
      ],
      [
        "▁ví_dụ",
        -9.958256720772551
      ],
      [
        "▁đại_biểu",
        -9.958556954707229
      ],
      [
        "▁miếng",
        -9.95883002468882
      ],
      [
        "Sự_kiện",
        -9.958922276124367
      ],
      [
        "▁đề_xuất",
        -9.959452972188934
      ],
      [
        "▁Vụ",
        -9.959918157455377
      ],
      [
        "▁bố_trí",
        -9.95997901880624
      ],
      [
        "▁đạo_đức",
        -9.96014691344901
      ],
      [
        "bạn_đọc",
        -9.960356899867628
      ],
      [
        "▁phiên",
        -9.960469500461516
      ],
      [
        "▁diện",
        -9.960785215824828
      ],
      [
        "▁hữu",
        -9.961024710340691
      ],
      [
        "▁trống",
        -9.962090681848858
      ],
      [
        "tử_vong",
        -9.962139179586943
      ],
      [
        "▁Windows",
        -9.962258915656069
      ],
      [
        "▁trúng",
        -9.962378560850595
      ],
      [
        "_tố",
        -9.963040902610835
      ],
      [
        "▁con_số",
        -9.963193243693764
      ],
      [
        "▁II",
        -9.963479215750803
      ],
      [
        "▁Hình_ảnh",
        -9.96373135755203
      ],
      [
        "▁bản_quyền",
        -9.963755558166865
      ],
      [
        "▁song",
        -9.964080112315823
      ],
      [
        "_hưởng",
        -9.964231848673316
      ],
      [
        "▁chủ_nghĩa",
        -9.965180997988648
      ],
      [
        "▁nấm",
        -9.965245358300855
      ],
      [
        "▁Mười",
        -9.966136301731195
      ],
      [
        "_phẩm",
        -9.966899246631112
      ],
      [
        "▁cướp",
        -9.966906012644216
      ],
      [
        "▁phạt",
        -9.967085265270882
      ],
      [
        "▁thượng",
        -9.967892052989203
      ],
      [
        "▁tớ",
        -9.968421293327802
      ],
      [
        "▁bạc",
        -9.968524087622557
      ],
      [
        "▁nạn_nhân",
        -9.968697720276063
      ],
      [
        "▁500",
        -9.96908252752633
      ],
      [
        "▁lao",
        -9.96951006558201
      ],
      [
        "▁thi_đấu",
        -9.97038847782737
      ],
      [
        "Quốc_tế",
        -9.970412700098615
      ],
      [
        "▁Kim",
        -9.970654363073235
      ],
      [
        "▁tập_đoàn",
        -9.971180887892844
      ],
      [
        "▁phát_sinh",
        -9.971332631913176
      ],
      [
        "▁Chẳng",
        -9.972928184816396
      ],
      [
        "▁Tập_đoàn",
        -9.973159131474825
      ],
      [
        "▁Bác",
        -9.973203580107134
      ],
      [
        "_đỏ",
        -9.973419031801514
      ],
      [
        "_vọng",
        -9.973438391044793
      ],
      [
        "▁Thái",
        -9.973701692672783
      ],
      [
        "▁thú",
        -9.97465403242188
      ],
      [
        "giám_đốc",
        -9.976885758674037
      ],
      [
        "_tảng",
        -9.977572705085226
      ],
      [
        "▁kim",
        -9.977734638459127
      ],
      [
        "▁nhỉ",
        -9.977892697927237
      ],
      [
        "ệt",
        -9.977968435930228
      ],
      [
        "▁45",
        -9.97832904163811
      ],
      [
        "Hơn",
        -9.97838864194348
      ],
      [
        "▁rối_loạn",
        -9.978426234983742
      ],
      [
        "▁béo",
        -9.979318592120793
      ],
      [
        "nghỉ_ngơi",
        -9.981527049893698
      ],
      [
        "▁Nghe",
        -9.981536906046506
      ],
      [
        "▁muối",
        -9.98224245443002
      ],
      [
        "sáu",
        -9.982820477965554
      ],
      [
        "▁Tp.",
        -9.983082563809042
      ],
      [
        "▁đĩa",
        -9.983136389653197
      ],
      [
        "▁Vì_thế",
        -9.983322633593032
      ],
      [
        "▁gạo",
        -9.983579055226157
      ],
      [
        "▁tẩy",
        -9.983764759301025
      ],
      [
        "▁trôi",
        -9.983969658351542
      ],
      [
        "▁công_nhân",
        -9.984141760254424
      ],
      [
        "▁màn",
        -9.984412041414656
      ],
      [
        "▁ruột",
        -9.984540321186444
      ],
      [
        "_thầu",
        -9.985343758363642
      ],
      [
        "▁xứ",
        -9.98643529114782
      ],
      [
        "cổ_phiếu",
        -9.986822618331884
      ],
      [
        "đắt",
        -9.988174001952125
      ],
      [
        "ra_đời",
        -9.989026494461486
      ],
      [
        "▁tròn",
        -9.989373162380298
      ],
      [
        "▁Bình_luận",
        -9.992748213581452
      ],
      [
        "▁thảo_luận",
        -9.993076530930816
      ],
      [
        "▁thiết_lập",
        -9.993329376418991
      ],
      [
        "▁Chăm_sóc",
        -9.993427623532948
      ],
      [
        "▁rác",
        -9.99376664785712
      ],
      [
        "▁Chúng",
        -9.993904405969456
      ],
      [
        "▁tư_tưởng",
        -9.994088166432505
      ],
      [
        "▁mươi",
        -9.994990279035695
      ],
      [
        "▁ly",
        -9.995123367887508
      ],
      [
        "▁đỉnh",
        -9.995272794186503
      ],
      [
        "_lành",
        -9.995393811185457
      ],
      [
        "ó",
        -9.995473850751752
      ],
      [
        "▁Tiểu",
        -9.996548830355364
      ],
      [
        "▁đệ",
        -9.997411817006007
      ],
      [
        "▁dự_kiến",
        -9.99761808269031
      ],
      [
        "▁hằng",
        -9.997637749326802
      ],
      [
        "▁chạm",
        -9.997797925297805
      ],
      [
        "▁lên_tiếng",
        -9.999258856596825
      ],
      [
        "▁thâm",
        -9.999452138001876
      ],
      [
        "▁liệu",
        -9.999592152455836
      ],
      [
        "▁gã",
        -9.999712626212547
      ],
      [
        "chở",
        -9.999731896140728
      ],
      [
        "▁váy",
        -10.001233026290322
      ],
      [
        "▁Hùng",
        -10.001679150185089
      ],
      [
        "▁phát_huy",
        -10.0018975813489
      ],
      [
        "▁ưu_tiên",
        -10.003232635880796
      ],
      [
        "lãi_suất",
        -10.003498656171573
      ],
      [
        "▁hoàn_cảnh",
        -10.003517725226136
      ],
      [
        "quân_đội",
        -10.003853101547657
      ],
      [
        "▁cơ_chế",
        -10.00639935656284
      ],
      [
        "▁Ô",
        -10.00653088416833
      ],
      [
        "▁phủ",
        -10.006542953232453
      ],
      [
        "▁để_ý",
        -10.00783275952271
      ],
      [
        "▁bài_tập",
        -10.007934968223411
      ],
      [
        "_đất",
        -10.00872792666682
      ],
      [
        "Tài_liệu",
        -10.010700246955825
      ],
      [
        "▁tiêu_thụ",
        -10.011034308818408
      ],
      [
        "lý_tưởng",
        -10.011861270601765
      ],
      [
        "▁Đà_Lạt",
        -10.011893263036448
      ],
      [
        "▁trường_học",
        -10.01194152775638
      ],
      [
        "▁QĐ",
        -10.01224415110402
      ],
      [
        "▁vi",
        -10.012465694197209
      ],
      [
        "▁vững",
        -10.012679874076392
      ],
      [
        "b",
        -10.013704236025072
      ],
      [
        "í_dụ",
        -10.013921495374458
      ],
      [
        "▁thận",
        -10.0143174140743
      ],
      [
        "▁giới_hạn",
        -10.01450977959643
      ],
      [
        "trí_tuệ",
        -10.015607733182575
      ],
      [
        "▁tướng",
        -10.016776805851151
      ],
      [
        "▁phạm_vi",
        -10.016877842582872
      ],
      [
        "Bí_thư",
        -10.01713684442561
      ],
      [
        "▁vận_tải",
        -10.017209232304769
      ],
      [
        "Phần_mềm",
        -10.0176636570437
      ],
      [
        "▁thần_kinh",
        -10.017666590968162
      ],
      [
        "▁liên_lạc",
        -10.01770974203009
      ],
      [
        "▁tuyển_sinh",
        -10.01944379344152
      ],
      [
        "▁dày",
        -10.019482065081109
      ],
      [
        "▁thuyền",
        -10.019627694998787
      ],
      [
        "▁chim",
        -10.020204545613105
      ],
      [
        "▁thống_nhất",
        -10.020275081243252
      ],
      [
        "phương_án",
        -10.02059917944836
      ],
      [
        "_việc",
        -10.022076695788453
      ],
      [
        "▁người_thân",
        -10.022711292623374
      ],
      [
        "▁Trương",
        -10.022804907362191
      ],
      [
        "▁nếu_như",
        -10.022840112762758
      ],
      [
        "▁Căn",
        -10.023662251467863
      ],
      [
        "▁tham",
        -10.02379261916412
      ],
      [
        "▁Quý",
        -10.024031750230458
      ],
      [
        "▁Du_Lịch",
        -10.024076480268334
      ],
      [
        "▁nám",
        -10.02409718243213
      ],
      [
        "▁trình",
        -10.02413910093346
      ],
      [
        "▁Khách_hàng",
        -10.024434698837696
      ],
      [
        "▁Kỹ_thuật",
        -10.024563365179862
      ],
      [
        "▁thực_hành",
        -10.024871404303646
      ],
      [
        "▁bông",
        -10.02490391599271
      ],
      [
        "▁tao",
        -10.024936632563584
      ],
      [
        "▁tiếp_nhận",
        -10.025513408186177
      ],
      [
        "▁tiềm_năng",
        -10.025567527855449
      ],
      [
        "▁dân_chủ",
        -10.025944676528132
      ],
      [
        "▁Chủ",
        -10.027003352337475
      ],
      [
        "▁gương_mặt",
        -10.027368385844037
      ],
      [
        "▁tử_cung",
        -10.027611329776176
      ],
      [
        "▁cân_bằng",
        -10.027755140958666
      ],
      [
        "▁Chào",
        -10.028817008935018
      ],
      [
        "▁dán",
        -10.02901862121965
      ],
      [
        "▁thân_thể",
        -10.029150131649883
      ],
      [
        "▁cảnh_báo",
        -10.029167186635798
      ],
      [
        "▁Linh",
        -10.029620219178948
      ],
      [
        "▁mí",
        -10.029953757755464
      ],
      [
        "_riêng",
        -10.03070572712404
      ],
      [
        "_hạn",
        -10.032010535245394
      ],
      [
        "▁Danh_mục",
        -10.032579893518903
      ],
      [
        "▁đẳng_cấp",
        -10.03334186610905
      ],
      [
        "▁ảo",
        -10.034257901414122
      ],
      [
        "quen_thuộc",
        -10.03462806606997
      ],
      [
        "▁rao",
        -10.035884411416784
      ],
      [
        "▁sốt",
        -10.0362668224309
      ],
      [
        "▁tiêu_chí",
        -10.036809388614396
      ],
      [
        "▁âm_nhạc",
        -10.037755348793606
      ],
      [
        "▁Dùng",
        -10.03808999180552
      ],
      [
        "ngạc_nhiên",
        -10.038568432752207
      ],
      [
        "▁Sức_khỏe",
        -10.038827627006077
      ],
      [
        "▁công_nhận",
        -10.040109355781286
      ],
      [
        "▁xăng",
        -10.040753737513509
      ],
      [
        "▁vội",
        -10.04082133046442
      ],
      [
        "mỹ_phẩm",
        -10.041122458906557
      ],
      [
        "▁Không_thể",
        -10.041262504454023
      ],
      [
        "▁cụ",
        -10.04173926593817
      ],
      [
        "▁km",
        -10.041798316997848
      ],
      [
        "▁Cao_đẳng",
        -10.042206348253114
      ],
      [
        "▁TNHH",
        -10.042813738920616
      ],
      [
        "▁từ_chối",
        -10.045113295623349
      ],
      [
        "▁tức",
        -10.045267401296032
      ],
      [
        "▁giấy_t",
        -10.045348985564916
      ],
      [
        "▁đòi",
        -10.046927982572385
      ],
      [
        "▁Cảm_ơn",
        -10.046957100146466
      ],
      [
        "▁toàn_diện",
        -10.047314039530228
      ],
      [
        "mọc",
        -10.047720344971612
      ],
      [
        "▁viện",
        -10.04794757760585
      ],
      [
        "▁Nguyên_nhân",
        -10.048186261355436
      ],
      [
        "▁Cổ_phần",
        -10.048592894706635
      ],
      [
        "▁giảng",
        -10.049108618594625
      ],
      [
        "▁tham_",
        -10.050593588118955
      ],
      [
        "▁nối",
        -10.052477182283235
      ],
      [
        "▁sim",
        -10.052932105596826
      ],
      [
        "▁F",
        -10.053354239944651
      ],
      [
        "▁thời_kỳ",
        -10.053851240142611
      ],
      [
        "▁CHO",
        -10.053857478238813
      ],
      [
        "▁trang_phục",
        -10.05412939142142
      ],
      [
        "▁phun",
        -10.05476737737719
      ],
      [
        "▁tính_chất",
        -10.054956951786352
      ],
      [
        "▁Diệp",
        -10.05512636265001
      ],
      [
        "▁trình_bày",
        -10.055268995744049
      ],
      [
        "▁Thuốc",
        -10.056044812356838
      ],
      [
        "ủ",
        -10.056045123941184
      ],
      [
        "▁nhiệt",
        -10.056714488355883
      ],
      [
        "▁Đồng_thời",
        -10.057061798924018
      ],
      [
        "▁huyết_áp",
        -10.058381248690235
      ],
      [
        "▁file",
        -10.05866796512598
      ],
      [
        "▁nông_dân",
        -10.059363526285017
      ],
      [
        "▁Tạo",
        -10.060043018340853
      ],
      [
        "▁đại_lý",
        -10.060051399266325
      ],
      [
        "_nghĩa_là",
        -10.060775271988383
      ],
      [
        "nguồn_gốc",
        -10.061514566383485
      ],
      [
        "▁vang",
        -10.062337347821412
      ],
      [
        "giá_cả",
        -10.0625542658732
      ],
      [
        "▁Thực_hiện",
        -10.064198991596484
      ],
      [
        "học_viên",
        -10.06429556608391
      ],
      [
        "▁nhận_thức",
        -10.06433908188069
      ],
      [
        "chờ_đợi",
        -10.064764133243152
      ],
      [
        "▁Muốn",
        -10.06499612784182
      ],
      [
        "▁Copyright",
        -10.065238182787812
      ],
      [
        "phụ_thuộc",
        -10.065544630643416
      ],
      [
        "▁hoàn",
        -10.065719129180952
      ],
      [
        "▁tuyên_truyền",
        -10.065748299596484
      ],
      [
        "_đạp",
        -10.06743200231436
      ],
      [
        "vi_khuẩn",
        -10.068025863425998
      ],
      [
        "▁lò",
        -10.06862885134646
      ],
      [
        "▁mỏng",
        -10.068697314297385
      ],
      [
        "▁nhiễm",
        -10.068702739144848
      ],
      [
        "_rỡ",
        -10.07028880654042
      ],
      [
        "▁phục_hồi",
        -10.070998093335303
      ],
      [
        "▁Vừa",
        -10.072531259636682
      ],
      [
        "▁hiệp",
        -10.073752176790656
      ],
      [
        "_buộc",
        -10.073830011742666
      ],
      [
        "▁tương_đương",
        -10.074049784825604
      ],
      [
        "▁Tô",
        -10.074843778229452
      ],
      [
        "^",
        -10.076683637359388
      ],
      [
        "▁Môi_trường",
        -10.076916298695998
      ],
      [
        "▁tiếc",
        -10.077900406795113
      ],
      [
        "▁vạn",
        -10.07796632297334
      ],
      [
        "▁liên",
        -10.078664700542792
      ],
      [
        "▁Tour",
        -10.079178203463266
      ],
      [
        "▁mặt_hàng",
        -10.079572590277015
      ],
      [
        "▁Trump",
        -10.079941501141787
      ],
      [
        "▁sở",
        -10.079967624839847
      ],
      [
        "▁thảm",
        -10.08007120702324
      ],
      [
        "_giới",
        -10.080440550549683
      ],
      [
        "▁kg",
        -10.080978338510567
      ],
      [
        "▁phản_hồi",
        -10.081136513808776
      ],
      [
        "▁giấc",
        -10.081591098972956
      ],
      [
        "▁Đài_Loan",
        -10.083393700434652
      ],
      [
        "hội_nghị",
        -10.083471021307538
      ],
      [
        "▁Nếu_như",
        -10.083515847201584
      ],
      [
        "▁đài",
        -10.08400814822016
      ],
      [
        "▁co",
        -10.084631389983585
      ],
      [
        "▁Ghi",
        -10.085372043740438
      ],
      [
        "▁nhà_trường",
        -10.085727764634507
      ],
      [
        "▁cát",
        -10.085766794845735
      ],
      [
        "S",
        -10.086046557041303
      ],
      [
        "▁tách",
        -10.087601464772776
      ],
      [
        "▁ga",
        -10.088112908965206
      ],
      [
        "▁cư_dân",
        -10.088334972263688
      ],
      [
        "▁ưa",
        -10.088498804221752
      ],
      [
        "▁phổ_thông",
        -10.088752114719234
      ],
      [
        "▁xuân",
        -10.088807209945324
      ],
      [
        "▁thỏa_thuận",
        -10.089149102743471
      ],
      [
        "▁bấm",
        -10.089390700478964
      ],
      [
        "ìm_hiểu",
        -10.08965416871542
      ],
      [
        "▁hàng_loạt",
        -10.089660956315791
      ],
      [
        "▁CÓ",
        -10.090063052232384
      ],
      [
        "▁dân_cư",
        -10.09011770286206
      ],
      [
        "▁phong_trào",
        -10.091053970820695
      ],
      [
        "▁Nữ",
        -10.091949273238846
      ],
      [
        "▁phỏng_vấn",
        -10.092020292231188
      ],
      [
        "▁ý_thức",
        -10.092204292189049
      ],
      [
        "▁hậu_quả",
        -10.093003672084624
      ],
      [
        "▁cú",
        -10.094536602531957
      ],
      [
        "▁cỏ",
        -10.094560772154392
      ],
      [
        "_đồ",
        -10.094823096386133
      ],
      [
        "chuyên_ngành",
        -10.0951814595589
      ],
      [
        "ác",
        -10.095614320227952
      ],
      [
        "▁đồng_chí",
        -10.097762352418082
      ],
      [
        "▁nói_chung",
        -10.098145004878695
      ],
      [
        "▁300",
        -10.099176752494191
      ],
      [
        "▁thuận_tiện",
        -10.09954354308304
      ],
      [
        "▁động_cơ",
        -10.100141644210254
      ],
      [
        "▁hạn",
        -10.10107623579722
      ],
      [
        "▁lưu_trữ",
        -10.103399411701874
      ],
      [
        "▁hóa",
        -10.10435404708582
      ],
      [
        "▁gương",
        -10.109986986406772
      ],
      [
        "sợ_hãi",
        -10.110142139817272
      ],
      [
        "▁nghỉ_dưỡng",
        -10.110278845180698
      ],
      [
        "#",
        -10.11107415377655
      ],
      [
        "▁chuỗi",
        -10.111126784287327
      ],
      [
        "▁loa",
        -10.111815657336315
      ],
      [
        "bám",
        -10.111973607564986
      ],
      [
        "▁tập_thể",
        -10.112027860089118
      ],
      [
        "▁chiến",
        -10.11213782055557
      ],
      [
        "_dâm",
        -10.112732172032976
      ],
      [
        "▁phái",
        -10.112802775776904
      ],
      [
        "▁Hỏi",
        -10.113686832116036
      ],
      [
        "▁Canada",
        -10.1139020532878
      ],
      [
        "CÔNG_TY",
        -10.113954510781827
      ],
      [
        "▁bơi",
        -10.11461361995882
      ],
      [
        "_giữ",
        -10.114654215646034
      ],
      [
        "_gỡ",
        -10.114687366097597
      ],
      [
        "▁sự_cố",
        -10.11478986546824
      ],
      [
        "▁Quan",
        -10.11540461918859
      ],
      [
        "▁phân_biệt",
        -10.11593928377224
      ],
      [
        "▁Thị_trường",
        -10.116962580026897
      ],
      [
        "▁Giao",
        -10.117200421518644
      ],
      [
        "▁Kiểm_tra",
        -10.11744696645743
      ],
      [
        "▁trần",
        -10.117620328030132
      ],
      [
        "tinh_tế",
        -10.11801749104668
      ],
      [
        "nhũng",
        -10.119141551164573
      ],
      [
        "▁2007",
        -10.119592766312769
      ],
      [
        "▁BẠN",
        -10.120109587469182
      ],
      [
        "▁ẩn",
        -10.120150071415878
      ],
      [
        "▁bổ",
        -10.120460825956782
      ],
      [
        "▁xuất_bản",
        -10.12047947853893
      ],
      [
        "đáng_kể",
        -10.120556241506916
      ],
      [
        "▁Tăng",
        -10.121079274813312
      ],
      [
        "Căn_hộ",
        -10.122073108015371
      ],
      [
        "nghề_nghiệp",
        -10.12247415342339
      ],
      [
        "▁cờ",
        -10.12386303351462
      ],
      [
        "▁Phụ",
        -10.124983408299189
      ],
      [
        "▁dính",
        -10.126166688398389
      ],
      [
        "▁sợi",
        -10.126755875470836
      ],
      [
        "▁trật_tự",
        -10.127024027434604
      ],
      [
        "▁Tâm",
        -10.1273311494966
      ],
      [
        "▁nướng",
        -10.128081263872724
      ],
      [
        "▁la",
        -10.12824476273024
      ],
      [
        "▁Tiền",
        -10.128278117312908
      ],
      [
        "▁chế",
        -10.129094033109894
      ],
      [
        "Lao_động",
        -10.129132068190469
      ],
      [
        "▁đề_tài",
        -10.12915166874366
      ],
      [
        "▁Quân",
        -10.12927559990297
      ],
      [
        "▁tôn_giáo",
        -10.129793585885736
      ],
      [
        "▁Lịch_sử",
        -10.130015696408345
      ],
      [
        "▁nhận_định",
        -10.13015756305671
      ],
      [
        "▁ghé",
        -10.130329665704185
      ],
      [
        "▁giảm_giá",
        -10.13140509873644
      ],
      [
        "▁dáng",
        -10.131528252135196
      ],
      [
        "▁thiên",
        -10.131867188580216
      ],
      [
        "▁chuyển_đổi",
        -10.13215606867666
      ],
      [
        "▁góp",
        -10.132281871398064
      ],
      [
        "▁tia",
        -10.132933101132815
      ],
      [
        "▁liều",
        -10.13394631154901
      ],
      [
        "▁đặc_trưng",
        -10.135475940821564
      ],
      [
        "▁đặc",
        -10.135524189393587
      ],
      [
        "▁đối_phương",
        -10.13586528941968
      ],
      [
        "▁internet",
        -10.136357831588787
      ],
      [
        "▁Nhân",
        -10.136653043186694
      ],
      [
        "▁GD",
        -10.136864945651052
      ],
      [
        "▁chặn",
        -10.137395340888013
      ],
      [
        "▁dương",
        -10.13833655217271
      ],
      [
        "▁tối_thiểu",
        -10.13858397282484
      ],
      [
        "▁Tỉnh",
        -10.13975946585044
      ],
      [
        "x",
        -10.139818602867216
      ],
      [
        "▁săn",
        -10.139937530483154
      ],
      [
        "▁bí_quyết",
        -10.140101361681875
      ],
      [
        "▁Hải",
        -10.140538363312862
      ],
      [
        "▁tiêu_biểu",
        -10.141537708962964
      ],
      [
        "▁năm_học",
        -10.141897499354911
      ],
      [
        "▁Vâng",
        -10.14193580065615
      ],
      [
        "▁bẩn",
        -10.141989433608323
      ],
      [
        "▁Bình",
        -10.143555801613164
      ],
      [
        "▁Mùa",
        -10.145857717910674
      ],
      [
        "▁Đại_hội",
        -10.14617570944145
      ],
      [
        "▁tích_hợp",
        -10.14735968252736
      ],
      [
        "▁ngăn_chặn",
        -10.147707382787235
      ],
      [
        "_bằng",
        -10.148227959847487
      ],
      [
        "▁tương_đối",
        -10.148368035954723
      ],
      [
        "▁phụ_kiện",
        -10.149093318165637
      ],
      [
        "▁tiêu_đề",
        -10.149877871476626
      ],
      [
        "▁chương",
        -10.150845049027504
      ],
      [
        "▁Vương",
        -10.15118886134349
      ],
      [
        "▁thống_kê",
        -10.151269547981965
      ],
      [
        "▁Bí_quyết",
        -10.151361349765402
      ],
      [
        "▁lâm",
        -10.15181473539115
      ],
      [
        "ẻ",
        -10.15190875397357
      ],
      [
        "▁chu",
        -10.152103045736943
      ],
      [
        "▁32",
        -10.152233713480138
      ],
      [
        "ca_sĩ",
        -10.15348759075178
      ],
      [
        "▁tân",
        -10.15371473668772
      ],
      [
        "▁phong_phú",
        -10.1537533745001
      ],
      [
        "▁Gia",
        -10.154239248135976
      ],
      [
        "▁tổng_số",
        -10.154679635892736
      ],
      [
        "▁Nghệ_An",
        -10.154775191714478
      ],
      [
        "▁Loại",
        -10.154843647227429
      ],
      [
        "▁áp",
        -10.157309365927494
      ],
      [
        "▁táo",
        -10.158248475532844
      ],
      [
        "▁Kinh_doanh",
        -10.159219325176968
      ],
      [
        "▁danh",
        -10.159900124541906
      ],
      [
        "▁say",
        -10.160480904893756
      ],
      [
        "▁net",
        -10.161763316403189
      ],
      [
        "▁Malaysia",
        -10.162013497036831
      ],
      [
        "Bác_sĩ",
        -10.162127840244956
      ],
      [
        "▁hậu",
        -10.16219917278444
      ],
      [
        "thay_vì",
        -10.162515557751972
      ],
      [
        "_gái",
        -10.162942577458288
      ],
      [
        "▁đoán",
        -10.16359119145822
      ],
      [
        "▁Yêu",
        -10.16423552313984
      ],
      [
        "▁động_vật",
        -10.164576085281968
      ],
      [
        "▁đam_mê",
        -10.16470900477885
      ],
      [
        "luật_sư",
        -10.16476284313854
      ],
      [
        "▁tour",
        -10.164948132560388
      ],
      [
        "▁bề_mặt",
        -10.165462295666698
      ],
      [
        "▁tính_toán",
        -10.165724327397282
      ],
      [
        "—",
        -10.16639750183128
      ],
      [
        "▁đậm",
        -10.166917059826991
      ],
      [
        "▁NĐ",
        -10.167389844355124
      ],
      [
        "_đầu",
        -10.167816940331562
      ],
      [
        "▁tiêu_hóa",
        -10.168055391899449
      ],
      [
        "▁Nội",
        -10.168331809511017
      ],
      [
        "▁đức",
        -10.168376209856586
      ],
      [
        "▁lành",
        -10.16887180570526
      ],
      [
        "▁xin_lỗi",
        -10.169099247427454
      ],
      [
        "▁Tổng_số",
        -10.169688833724338
      ],
      [
        "▁mờ",
        -10.170769477230234
      ],
      [
        "▁khổng_lồ",
        -10.170961638172184
      ],
      [
        "_trai",
        -10.17206158897471
      ],
      [
        "_nuôi",
        -10.1721057139142
      ],
      [
        "▁đối_mặt",
        -10.172125547117895
      ],
      [
        "▁Cần_Thơ",
        -10.17365930309394
      ],
      [
        "▁hiếm",
        -10.173688508231654
      ],
      [
        "tự_hào",
        -10.174002065389672
      ],
      [
        "▁biểu_tượng",
        -10.174088254662356
      ],
      [
        "▁Khóa",
        -10.17421845717547
      ],
      [
        "▁tựa",
        -10.17427939428652
      ],
      [
        "vui_chơi",
        -10.174363501985017
      ],
      [
        "▁chả",
        -10.175113623417678
      ],
      [
        "▁Vị_trí",
        -10.175630354141855
      ],
      [
        "▁tối_ưu",
        -10.17657384907839
      ],
      [
        "_nghề",
        -10.177567748964362
      ],
      [
        "▁trái_cây",
        -10.178370460684736
      ],
      [
        "▁công_dân",
        -10.178888045502909
      ],
      [
        "Cơ_sở",
        -10.179122838150985
      ],
      [
        "▁định_hướng",
        -10.179376176942489
      ],
      [
        "_bay",
        -10.179548702207226
      ],
      [
        "▁bát",
        -10.179766278454151
      ],
      [
        "▁đặc_điểm",
        -10.180607259141093
      ],
      [
        "▁Mặt",
        -10.181421769467114
      ],
      [
        "▁Đồ",
        -10.181958400658855
      ],
      [
        "▁mừng",
        -10.18197928566352
      ],
      [
        "▁ngọt",
        -10.182338396137416
      ],
      [
        "▁thu_hồi",
        -10.18262844175396
      ],
      [
        "▁Cha",
        -10.184239322645936
      ],
      [
        "▁kết_luận",
        -10.184273319903172
      ],
      [
        "▁phát_biểu",
        -10.184408482936266
      ],
      [
        "_hàng",
        -10.184920616517768
      ],
      [
        "Khách_sạn",
        -10.184974907148964
      ],
      [
        "ư",
        -10.185411195595254
      ],
      [
        "▁khăn",
        -10.185719536764898
      ],
      [
        "▁căn_bản",
        -10.185960495754326
      ],
      [
        "▁Biển_Đông",
        -10.186870846451551
      ],
      [
        "▁Nguyên",
        -10.186927139419447
      ],
      [
        "▁minh",
        -10.18733514540646
      ],
      [
        "▁nhấn_mạnh",
        -10.189534344718084
      ],
      [
        "▁Gần",
        -10.190371866855054
      ],
      [
        "▁trang_điểm",
        -10.190602664835604
      ],
      [
        "trận_đấu",
        -10.191012223777845
      ],
      [
        "▁HLV",
        -10.191283783955852
      ],
      [
        "▁thấm",
        -10.1917657388048
      ],
      [
        "▁nương",
        -10.19207236971856
      ],
      [
        "▁Điện",
        -10.192095869040257
      ],
      [
        "▁sơ",
        -10.192386642960097
      ],
      [
        "▁bảy",
        -10.19238863136007
      ],
      [
        "▁hài",
        -10.192765845669529
      ],
      [
        "_khứ",
        -10.194730499775012
      ],
      [
        "▁đau_đớn",
        -10.195622412148916
      ],
      [
        "▁24h",
        -10.195738144518272
      ],
      [
        "▁dứt",
        -10.1964091047058
      ],
      [
        "▁Đôi",
        -10.19652800595107
      ],
      [
        "phê_duyệt",
        -10.19697552116081
      ],
      [
        "_chua",
        -10.19843982437421
      ],
      [
        "▁In",
        -10.198457600922858
      ],
      [
        "▁NHẤT",
        -10.19872459668924
      ],
      [
        "▁THÔNG_TIN",
        -10.20098423569494
      ],
      [
        "▁thân_thiện",
        -10.201091161311952
      ],
      [
        "▁bảo_quản",
        -10.20136077737656
      ],
      [
        "▁City",
        -10.202368493819783
      ],
      [
        "BÀI",
        -10.202513203670993
      ],
      [
        "▁Trẻ",
        -10.202573846782425
      ],
      [
        "▁bài_học",
        -10.202722545833378
      ],
      [
        "công_suất",
        -10.202812754364604
      ],
      [
        "▁Sách",
        -10.203276036925653
      ],
      [
        "▁Đất",
        -10.203800350288878
      ],
      [
        "_sẽ",
        -10.203974863727812
      ],
      [
        "▁ha",
        -10.20557277949152
      ],
      [
        "▁trộm",
        -10.205695830453983
      ],
      [
        "▁Tổng_hợp",
        -10.206176315465532
      ],
      [
        "▁Thường",
        -10.206343145499895
      ],
      [
        "▁Hình",
        -10.206749411946811
      ],
      [
        "▁trại",
        -10.20721346868997
      ],
      [
        "▁lũ",
        -10.207347392651904
      ],
      [
        "▁Món",
        -10.208021950009938
      ],
      [
        "▁Tải",
        -10.208536897462505
      ],
      [
        "▁lát",
        -10.209094004509986
      ],
      [
        "2",
        -10.209867604110157
      ],
      [
        "▁36",
        -10.211073008823078
      ],
      [
        "▁căn_bệnh",
        -10.211501122617005
      ],
      [
        "▁canh",
        -10.212887311732263
      ],
      [
        "Ý",
        -10.212999418860743
      ],
      [
        "▁mạch",
        -10.213491944461287
      ],
      [
        "_mạng",
        -10.214383595889316
      ],
      [
        "thị_trấn",
        -10.214598731910703
      ],
      [
        "▁hả",
        -10.21492382509079
      ],
      [
        "▁link",
        -10.21509757063663
      ],
      [
        "▁tranh_chấp",
        -10.215301201597368
      ],
      [
        "▁Viêm",
        -10.215914876594798
      ],
      [
        "cao_su",
        -10.21595820434055
      ],
      [
        "▁Nhờ",
        -10.216580013677602
      ],
      [
        "ắt_buộc",
        -10.216740821353277
      ],
      [
        "▁Phật_giáo",
        -10.21725207262357
      ],
      [
        "▁Tiêu",
        -10.218147933799226
      ],
      [
        "▁mực",
        -10.218325265252089
      ],
      [
        "▁cộng_sản",
        -10.22036099173648
      ],
      [
        "▁phương_thức",
        -10.220406912770674
      ],
      [
        "▁than",
        -10.220548783744755
      ],
      [
        "▁đuổi",
        -10.22119134364166
      ],
      [
        "▁thợ",
        -10.22125569345175
      ],
      [
        "▁khoa",
        -10.221393819637756
      ],
      [
        "dọc",
        -10.22147809382117
      ],
      [
        "▁diệt",
        -10.221488235185111
      ],
      [
        "▁Triệu",
        -10.222088930999146
      ],
      [
        "▁Android",
        -10.22230992095518
      ],
      [
        "▁Đăng",
        -10.222536192027835
      ],
      [
        "▁bú",
        -10.222656298342768
      ],
      [
        "▁khảo_sát",
        -10.223166935664931
      ],
      [
        "tin_cậy",
        -10.223467029446162
      ],
      [
        "_ngủ",
        -10.223497786953711
      ],
      [
        "▁giảng_dạy",
        -10.224650668954178
      ],
      [
        "▁lính",
        -10.224731859935147
      ],
      [
        "_nhất",
        -10.224992710454158
      ],
      [
        "mỉm",
        -10.225183541155168
      ],
      [
        "▁Vũ",
        -10.225482324939582
      ],
      [
        "▁tệ",
        -10.22656663630142
      ],
      [
        "▁thùng",
        -10.22740520453213
      ],
      [
        "Ã",
        -10.227839585573586
      ],
      [
        "▁đâm",
        -10.228379650850398
      ],
      [
        "▁trưởng",
        -10.2297060375835
      ],
      [
        "▁NAM",
        -10.229859110950429
      ],
      [
        "Nghị_quyết",
        -10.229866140049866
      ],
      [
        "_đuổi",
        -10.230724863218628
      ],
      [
        "▁Phú_Quốc",
        -10.232254615211446
      ],
      [
        "▁hải",
        -10.232412511574845
      ],
      [
        "▁hầm",
        -10.233432558419883
      ],
      [
        "▁mây",
        -10.233463680104173
      ],
      [
        "Ỗ",
        -10.23365001339525
      ],
      [
        "▁đấu_tranh",
        -10.23428028586159
      ],
      [
        "▁tháo",
        -10.234826725725569
      ],
      [
        "▁doanh_thu",
        -10.235412989391902
      ],
      [
        "▁quý_khách_hàng",
        -10.235532708462134
      ],
      [
        "▁cam",
        -10.235636640797418
      ],
      [
        "▁Giảm",
        -10.236040664711645
      ],
      [
        "▁2020",
        -10.237105024821162
      ],
      [
        "▁siêu_thị",
        -10.237392143849291
      ],
      [
        "▁Bị",
        -10.238028463579065
      ],
      [
        "quyến_rũ",
        -10.238659484112866
      ],
      [
        "▁tiên_tiến",
        -10.239399142961448
      ],
      [
        "▁kim_loại",
        -10.240997358029608
      ],
      [
        "_khoa",
        -10.24139534238835
      ],
      [
        "▁tượng",
        -10.24182636272461
      ],
      [
        "▁nhân_sự",
        -10.242033389340085
      ],
      [
        "▁Hà",
        -10.24287323565724
      ],
      [
        "▁mặt_bằng",
        -10.24309899618985
      ],
      [
        "▁Hồng",
        -10.24364809077051
      ],
      [
        "▁nâng_cấp",
        -10.244326815503207
      ],
      [
        "nghĩa_vụ",
        -10.244660965154706
      ],
      [
        "IẾT",
        -10.244800192229471
      ],
      [
        "▁công_thức",
        -10.244826468382133
      ],
      [
        "_lộ",
        -10.2450081797326
      ],
      [
        "▁khuyến_khích",
        -10.245154728700983
      ],
      [
        "tám",
        -10.246224126981756
      ],
      [
        "▁hôn_nhân",
        -10.24623282278183
      ],
      [
        "▁mặt_nạ",
        -10.246429035745118
      ],
      [
        "▁căng",
        -10.24684634212136
      ],
      [
        "▁tiên",
        -10.247189809808022
      ],
      [
        "_đua",
        -10.247233324220735
      ],
      [
        "▁nghi",
        -10.247915437217255
      ],
      [
        "N",
        -10.248478653697475
      ],
      [
        "▁Chiều",
        -10.248758626456317
      ],
      [
        "1",
        -10.249150858825688
      ],
      [
        "ô_nhiễm",
        -10.24965968209765
      ],
      [
        "▁gối",
        -10.24972868663538
      ],
      [
        "▁Lại",
        -10.250143104043923
      ],
      [
        "▁điên",
        -10.25018789206317
      ],
      [
        "▁dược",
        -10.250291712229927
      ],
      [
        "▁nhiệt_tình",
        -10.250305387454588
      ],
      [
        "$",
        -10.251081187004765
      ],
      [
        "▁phụ_huynh",
        -10.251508172884485
      ],
      [
        "▁cục",
        -10.251723447424986
      ],
      [
        "▁Đồng_Nai",
        -10.251796481252804
      ],
      [
        "▁Hơ",
        -10.25189583607228
      ],
      [
        "▁MỚI",
        -10.252252302690176
      ],
      [
        "▁trò",
        -10.25270713603412
      ],
      [
        "▁Lịch",
        -10.253002494636116
      ],
      [
        "▁thành_tích",
        -10.253050209675305
      ],
      [
        "▁CH",
        -10.253303051710404
      ],
      [
        "▁người_lớn",
        -10.254479005074598
      ],
      [
        "đối_diện",
        -10.25457276597453
      ],
      [
        "_lượng",
        -10.254685835989218
      ],
      [
        "▁visa",
        -10.254773305466076
      ],
      [
        "_rối",
        -10.25482978260382
      ],
      [
        "▁ghi_nhận",
        -10.254908715166984
      ],
      [
        "▁võ",
        -10.255043197607906
      ],
      [
        "_Anh",
        -10.255164655277122
      ],
      [
        "ì",
        -10.255653157133883
      ],
      [
        "▁lau",
        -10.258978797183325
      ],
      [
        "▁ng",
        -10.258999495189236
      ],
      [
        "▁Hoa_hậu",
        -10.26016783040367
      ],
      [
        "_một",
        -10.261281356671123
      ],
      [
        "▁cựu",
        -10.26143520705754
      ],
      [
        "▁ngõ",
        -10.261630723746324
      ],
      [
        "▁Diện_tích",
        -10.261633835931054
      ],
      [
        "giấu",
        -10.261679212470543
      ],
      [
        "Miền",
        -10.262367650884292
      ],
      [
        "▁mật_ong",
        -10.262460644601491
      ],
      [
        "▁nạn",
        -10.263455710500285
      ],
      [
        "bao_lâu",
        -10.26347895416106
      ],
      [
        "sẹo",
        -10.263655455734682
      ],
      [
        "▁đa_số",
        -10.263812544509316
      ],
      [
        "▁giá_thành",
        -10.26408323249434
      ],
      [
        "_gia",
        -10.264233775093224
      ],
      [
        "nghiệp_vụ",
        -10.264378468282809
      ],
      [
        "▁tôn_trọng",
        -10.264621877915625
      ],
      [
        "▁Huyện",
        -10.264669545116668
      ],
      [
        "▁Long",
        -10.264875557896612
      ],
      [
        "▁Tư",
        -10.265010534217156
      ],
      [
        "▁mô",
        -10.265195329057322
      ],
      [
        "▁World_Cup",
        -10.265234939804913
      ],
      [
        "▁GIÁ",
        -10.26591707192185
      ],
      [
        "«",
        -10.26603399887023
      ],
      [
        "công_dụng",
        -10.266046588799714
      ],
      [
        "▁đánh_dấu",
        -10.266520358778516
      ],
      [
        "▁Online",
        -10.26652126944994
      ],
      [
        "▁Cây",
        -10.26761026496248
      ],
      [
        "▁Blog",
        -10.267941262705325
      ],
      [
        "▁củ",
        -10.26929387523368
      ],
      [
        "▁nội_bộ",
        -10.269425993725834
      ],
      [
        "uối_cùng",
        -10.269813587166382
      ],
      [
        "▁O",
        -10.269975470676156
      ],
      [
        "nghi_ngờ",
        -10.269997686104626
      ],
      [
        "▁Điện_thoại",
        -10.27079666421605
      ],
      [
        "▁nhịp",
        -10.270878186263053
      ],
      [
        "▁Dự",
        -10.271065363019352
      ],
      [
        "▁Tạp_chí",
        -10.272137309169274
      ],
      [
        "▁chữa_trị",
        -10.273347252459812
      ],
      [
        "_tử",
        -10.273917124145164
      ],
      [
        "▁cất",
        -10.274414075825304
      ],
      [
        "▁giãn",
        -10.274451674530727
      ],
      [
        "▁loạt",
        -10.27472233860581
      ],
      [
        "▁trộn",
        -10.275317048994406
      ],
      [
        "nại",
        -10.275769033299664
      ],
      [
        "▁nghệ_sĩ",
        -10.275886590460534
      ],
      [
        "▁chứng_kiến",
        -10.275947554924402
      ],
      [
        "n_nữa",
        -10.277559252785723
      ],
      [
        "▁NH",
        -10.277638604722988
      ],
      [
        "lời_nói",
        -10.277693121825342
      ],
      [
        "▁tinh",
        -10.278124316002817
      ],
      [
        "công_viên",
        -10.27833887554654
      ],
      [
        "▁nầy",
        -10.278460021592585
      ],
      [
        "▁nhầm",
        -10.278488880085945
      ],
      [
        "▁gạch",
        -10.278786746137149
      ],
      [
        "▁tác",
        -10.27896790534199
      ],
      [
        "▁nhân_lực",
        -10.27921146348208
      ],
      [
        "▁mồ_hôi",
        -10.279260472056768
      ],
      [
        "▁ngựa",
        -10.27940206384712
      ],
      [
        "▁bọc",
        -10.279425334166168
      ],
      [
        "gật",
        -10.279910361799576
      ],
      [
        "▁thừa_nhận",
        -10.280423478905918
      ],
      [
        "_trị",
        -10.28050696506742
      ],
      [
        "▁nghiêm_túc",
        -10.2807853751563
      ],
      [
        "▁nghệ",
        -10.281404046647468
      ],
      [
        "cúi",
        -10.281445560535458
      ],
      [
        "▁trưởng_thành",
        -10.281496355562547
      ],
      [
        "_toán",
        -10.282108000885549
      ],
      [
        "▁chấm_dứt",
        -10.282176145238234
      ],
      [
        "▁trạm",
        -10.283879366888243
      ],
      [
        "▁dụng_cụ",
        -10.284082750080213
      ],
      [
        "_đáp",
        -10.284169267737722
      ],
      [
        "_chuộng",
        -10.2844175355369
      ],
      [
        "▁Chu",
        -10.284834938603888
      ],
      [
        "▁nhãn",
        -10.285123904176729
      ],
      [
        "Thương_mại",
        -10.285295287369236
      ],
      [
        "▁mâ",
        -10.285355196441175
      ],
      [
        "▁Biết",
        -10.285468674614986
      ],
      [
        "Thể_thao",
        -10.2857816339255
      ],
      [
        "ưu_điểm",
        -10.285990070669452
      ],
      [
        "G",
        -10.28724606220963
      ],
      [
        "▁ngọc",
        -10.28729125576889
      ],
      [
        "▁khỏe",
        -10.28818196503166
      ],
      [
        "▁dừa",
        -10.2888200964439
      ],
      [
        "▁Dũng",
        -10.289989340649496
      ],
      [
        "_chịu",
        -10.291347009400772
      ],
      [
        "▁Thời",
        -10.291652191350993
      ],
      [
        "▁thắt",
        -10.291743516951907
      ],
      [
        "▁lúa",
        -10.291767240612083
      ],
      [
        "▁chức",
        -10.291954590862064
      ],
      [
        "▁click",
        -10.291997549122003
      ],
      [
        "▁ném",
        -10.29204316688018
      ],
      [
        "▁NHÀ",
        -10.29210352019459
      ],
      [
        "▁tông",
        -10.294397996657166
      ],
      [
        "VỤ",
        -10.294473046279473
      ],
      [
        "▁đế",
        -10.294589465561597
      ],
      [
        "▁bia",
        -10.294723337311682
      ],
      [
        "▁Chuyển",
        -10.295511806946664
      ],
      [
        "▁mê",
        -10.296009687051102
      ],
      [
        "▁bản_đồ",
        -10.296437219378264
      ],
      [
        "▁Tòa",
        -10.29710569968066
      ],
      [
        "▁hỗn_hợp",
        -10.29719039097838
      ],
      [
        "▁of",
        -10.29814922489794
      ],
      [
        "@",
        -10.298467347328328
      ],
      [
        "tiện_lợi",
        -10.298869982808228
      ],
      [
        "▁th",
        -10.299118719390329
      ],
      [
        "▁thách_thức",
        -10.299135731862002
      ],
      [
        "▁khoảng_cách",
        -10.299180525807706
      ],
      [
        "▁bôi",
        -10.299934870841993
      ],
      [
        "▁bắc",
        -10.300081716365783
      ],
      [
        "▁Lưu_",
        -10.300523091909072
      ],
      [
        "▁ph",
        -10.300686185911603
      ],
      [
        "ăn",
        -10.3009439077268
      ],
      [
        "▁Dịch_Vụ",
        -10.301818452903907
      ],
      [
        "_HỌC",
        -10.302136394757024
      ],
      [
        "▁Ma",
        -10.302145822918256
      ],
      [
        "▁thánh",
        -10.30219670235109
      ],
      [
        "xếp_hạng",
        -10.302551721163184
      ],
      [
        "▁tôn",
        -10.302614733893172
      ],
      [
        "▁tôm",
        -10.303626606128615
      ],
      [
        "▁đỡ",
        -10.303830860261074
      ],
      [
        "▁muộn",
        -10.304223603964903
      ],
      [
        "▁buông",
        -10.305401549082315
      ],
      [
        "▁lạc",
        -10.305589072882254
      ],
      [
        "▁Vấn_đề",
        -10.30577893463558
      ],
      [
        "▁cắm",
        -10.306071954496735
      ],
      [
        "▁quyền_lợi",
        -10.30608109071204
      ],
      [
        "▁tiện_nghi",
        -10.306556702764752
      ],
      [
        "đất_đai",
        -10.307556979052285
      ],
      [
        "▁ngại",
        -10.307718398994329
      ],
      [
        "▁linh_hoạt",
        -10.307787613020066
      ],
      [
        "▁tất",
        -10.308461603882291
      ],
      [
        "▁chấm",
        -10.308700003199034
      ],
      [
        "▁Quên",
        -10.309082561904734
      ],
      [
        "▁hư",
        -10.309340509165931
      ],
      [
        "▁bù",
        -10.309471140354203
      ],
      [
        "n_ninh",
        -10.309798700328026
      ],
      [
        "▁chủ_quản",
        -10.310041976941928
      ],
      [
        "tiết_lộ",
        -10.310283879664224
      ],
      [
        "▁lợi_thế",
        -10.310575408862643
      ],
      [
        "▁Gia_đình",
        -10.31072756324546
      ],
      [
        "▁ch",
        -10.310850170987711
      ],
      [
        "▁Tốt",
        -10.310922215490134
      ],
      [
        "▁Chính_trị",
        -10.311580973949152
      ],
      [
        "▁kh",
        -10.31171665850901
      ],
      [
        "mở_cửa",
        -10.311794966611522
      ],
      [
        "▁cấu_trúc",
        -10.311891210507966
      ],
      [
        "▁tha",
        -10.311980763976742
      ],
      [
        "▁thể_loại",
        -10.312468785642306
      ],
      [
        "▁luyện",
        -10.312637841031972
      ],
      [
        "ám_ơn",
        -10.312777651570295
      ],
      [
        "_biển",
        -10.313701453629136
      ],
      [
        "▁phím",
        -10.313801382589144
      ],
      [
        "Ứng_dụng",
        -10.313897698234303
      ],
      [
        "▁lão_hóa",
        -10.314113178358248
      ],
      [
        "▁Nâng",
        -10.31447075039232
      ],
      [
        "▁bất_thường",
        -10.31494994585121
      ],
      [
        "▁chủ_trương",
        -10.314980328586364
      ],
      [
        "▁TH",
        -10.31520212602953
      ],
      [
        "bị_thương",
        -10.31535395186622
      ],
      [
        "biên_giới",
        -10.316306757047016
      ],
      [
        "▁phần_lớn",
        -10.31701147304057
      ],
      [
        "▁chanh",
        -10.317899078561634
      ],
      [
        "xông",
        -10.318611318492428
      ],
      [
        "▁bể",
        -10.319171590564672
      ],
      [
        "giải_đáp",
        -10.320078151189527
      ],
      [
        "▁Thanh_Hóa",
        -10.321124038799065
      ],
      [
        "▁liệt",
        -10.321147637134082
      ],
      [
        "máy_móc",
        -10.321567083815332
      ],
      [
        "▁Nhóm",
        -10.321938777925212
      ],
      [
        "B",
        -10.322043420612362
      ],
      [
        "hư_viện",
        -10.322360375373702
      ],
      [
        "_ảnh",
        -10.322406435008642
      ],
      [
        "▁giải_thưởng",
        -10.3232345049968
      ],
      [
        "▁hình_sự",
        -10.323414157720444
      ],
      [
        "▁Lên",
        -10.324141727301852
      ],
      [
        "_muốn",
        -10.324715005998902
      ],
      [
        "▁Thanh_Xuân",
        -10.325000746243292
      ],
      [
        "▁Tính",
        -10.32538620208478
      ],
      [
        "hủ_tục",
        -10.325738788983312
      ],
      [
        "_niệm",
        -10.325869793394842
      ],
      [
        "▁chỉ_số",
        -10.32778092880872
      ],
      [
        "▁Giải_pháp",
        -10.328600403972445
      ],
      [
        "▁smartphone",
        -10.328761860608614
      ],
      [
        "▁chiến_dịch",
        -10.329585701809426
      ],
      [
        "▁phiếu",
        -10.330249777471948
      ],
      [
        "▁thôn",
        -10.330276541946928
      ],
      [
        "▁sơ_sinh",
        -10.3314253476684
      ],
      [
        "▁Chiếc",
        -10.331454376715437
      ],
      [
        "▁khí_hậu",
        -10.331507228382495
      ],
      [
        "_luôn",
        -10.331589267030678
      ],
      [
        "▁phản_ánh",
        -10.33218383288443
      ],
      [
        "▁dư_luận",
        -10.332825658296334
      ],
      [
        "▁tài_trợ",
        -10.333494714817226
      ],
      [
        "▁ngăn_ngừa",
        -10.333672565921145
      ],
      [
        "▁tư_duy",
        -10.3340301563647
      ],
      [
        "iễn_phí",
        -10.33492824792391
      ],
      [
        "▁trước_mắt",
        -10.335348300771498
      ],
      [
        "▁tâm_hồn",
        -10.33658659279132
      ],
      [
        "▁bồi_thường",
        -10.336963302286318
      ],
      [
        "▁Cứ",
        -10.337372490622483
      ],
      [
        "dạo",
        -10.33878820689071
      ],
      [
        "▁Lâm",
        -10.338941135296864
      ],
      [
        "▁tội_phạm",
        -10.339021181611988
      ],
      [
        "▁Chuyên",
        -10.339235397042447
      ],
      [
        "▁thèm",
        -10.339340553052772
      ],
      [
        "sự_việc",
        -10.339515328495954
      ],
      [
        "▁TIN",
        -10.340010450853692
      ],
      [
        "▁ngu",
        -10.340433087306227
      ],
      [
        "▁tây",
        -10.340438515819844
      ],
      [
        "trụ_sở",
        -10.340848843459469
      ],
      [
        "▁ấm_áp",
        -10.34170197494926
      ],
      [
        "▁tiểu_đường",
        -10.34188296979118
      ],
      [
        "▁công_chức",
        -10.341974923720764
      ],
      [
        "▁lỡ",
        -10.342287609537438
      ],
      [
        "▁Tần",
        -10.343680228967052
      ],
      [
        "▁Bé",
        -10.343690028060072
      ],
      [
        "_tại",
        -10.344040594481797
      ],
      [
        "▁đe_dọa",
        -10.344148866809322
      ],
      [
        "▁lễ_hội",
        -10.344428618387823
      ],
      [
        "_diện",
        -10.346432478798528
      ],
      [
        "▁Ngọc",
        -10.347083860678056
      ],
      [
        "▁Sửa",
        -10.34732130030594
      ],
      [
        "▁hạt_nhân",
        -10.347845621629158
      ],
      [
        "▁tài_nguyên",
        -10.347887981427112
      ],
      [
        "▁bối_cảnh",
        -10.348501817387836
      ],
      [
        "ấp",
        -10.349201611112049
      ],
      [
        "▁Quảng_cáo",
        -10.34925312384774
      ],
      [
        "▁độc_giả",
        -10.349335717495604
      ],
      [
        "▁lắp",
        -10.3501496642472
      ],
      [
        "vụ_việc",
        -10.350221080078018
      ],
      [
        "ma_túy",
        -10.35037656044952
      ],
      [
        "▁ẩm_thực",
        -10.350744623825506
      ],
      [
        "_cùng",
        -10.350766228813802
      ],
      [
        "▁cương",
        -10.35108592729232
      ],
      [
        "▁Mai",
        -10.351247983595584
      ],
      [
        "▁Nguyễn_Văn",
        -10.351456077144643
      ],
      [
        "▁top",
        -10.351529682577995
      ],
      [
        "▁hỏng",
        -10.353853823293242
      ],
      [
        "▁im_lặng",
        -10.355821767143595
      ],
      [
        "▁đua",
        -10.35656321316886
      ],
      [
        "▁biểu_tình",
        -10.356923974728742
      ],
      [
        "▁lầu",
        -10.357037065669433
      ],
      [
        "▁sinh_học",
        -10.357204746881582
      ],
      [
        "▁thổi",
        -10.358321978542792
      ],
      [
        "khởi_nghiệp",
        -10.358760425466125
      ],
      [
        "▁Thế_Giới",
        -10.36245040634373
      ],
      [
        "▁KHÔNG",
        -10.363714386627851
      ],
      [
        "▁nhạy_cảm",
        -10.36424235267844
      ],
      [
        "▁Tai",
        -10.364578314696416
      ],
      [
        "▁sâu_sắc",
        -10.364938195650296
      ],
      [
        "▁Đầu",
        -10.36507810271748
      ],
      [
        "▁linh",
        -10.36554807923179
      ],
      [
        "đằng",
        -10.366106195968118
      ],
      [
        "▁Phi",
        -10.36645297695538
      ],
      [
        "▁Thời_trang",
        -10.366699161351535
      ],
      [
        "TRONG",
        -10.367559531555989
      ],
      [
        "▁đồ_chơi",
        -10.368454081040875
      ],
      [
        "_rồi",
        -10.368702449651622
      ],
      [
        "ật_khẩu",
        -10.369456633558372
      ],
      [
        "▁lãng",
        -10.369587920480791
      ],
      [
        "_mới",
        -10.36993606851028
      ],
      [
        "▁ý_định",
        -10.370168945929302
      ],
      [
        "ngoài_trời",
        -10.370710208346717
      ],
      [
        "▁vượt_trội",
        -10.370799495581425
      ],
      [
        "▁thái",
        -10.37085386643881
      ],
      [
        "▁phạm",
        -10.371058921691125
      ],
      [
        "▁non",
        -10.371343142641566
      ],
      [
        "▁phản_đối",
        -10.371488225557274
      ],
      [
        "▁Chịu",
        -10.372015606330066
      ],
      [
        "_thọ",
        -10.372057064764745
      ],
      [
        "▁lan",
        -10.372631465046856
      ],
      [
        "▁Vân",
        -10.373173412852852
      ],
      [
        "▁đẩy_mạnh",
        -10.373385185043338
      ],
      [
        "▁tô",
        -10.373595304641317
      ],
      [
        "▁bom",
        -10.373754107398211
      ],
      [
        "3",
        -10.373761082247007
      ],
      [
        "_phận",
        -10.37387787839379
      ],
      [
        "▁mau",
        -10.373995036913522
      ],
      [
        "nhận_biết",
        -10.374029921605102
      ],
      [
        "▁thời_đại",
        -10.37462872710848
      ],
      [
        "▁3D",
        -10.374731929770926
      ],
      [
        "con_cái",
        -10.37546228660766
      ],
      [
        "_điệu",
        -10.376191678444089
      ],
      [
        "học_bổng",
        -10.37629304140503
      ],
      [
        "_tắc",
        -10.376503930318886
      ],
      [
        "▁biến_đổi",
        -10.376836076426034
      ],
      [
        "▁hàn",
        -10.377311803461827
      ],
      [
        "▁đô",
        -10.37773570005152
      ],
      [
        "Đăng_Nhập",
        -10.377736461137356
      ],
      [
        "▁quyết_tâm",
        -10.377860868133652
      ],
      [
        "▁đàn_bà",
        -10.378094640917428
      ],
      [
        "_tên",
        -10.378679191363227
      ],
      [
        "▁bí",
        -10.378897243977685
      ],
      [
        "rực",
        -10.379467836677186
      ],
      [
        "▁cổ_điển",
        -10.379574382589505
      ],
      [
        "đăng_tải",
        -10.379718721200142
      ],
      [
        "thuốc_lá",
        -10.379840841685835
      ],
      [
        "quyền_lực",
        -10.379908761370322
      ],
      [
        "▁KH",
        -10.380291852626016
      ],
      [
        "Sẽ",
        -10.381197361873117
      ],
      [
        "▁Vinh",
        -10.381633950570986
      ],
      [
        "▁Nhập",
        -10.383300428838396
      ],
      [
        "▁vương",
        -10.383426979875262
      ],
      [
        "_tướng",
        -10.383614954063868
      ],
      [
        "▁tính_cách",
        -10.383909871506916
      ],
      [
        "▁Quy_chế",
        -10.384660236009696
      ],
      [
        "_xưa",
        -10.385940852891151
      ],
      [
        "ỏi",
        -10.385941745270284
      ],
      [
        "▁dao",
        -10.38596734822246
      ],
      [
        "▁Bạch",
        -10.38742513812683
      ],
      [
        "_thế",
        -10.38795993771004
      ],
      [
        "▁The",
        -10.388048453257904
      ],
      [
        "▁00",
        -10.388593800430908
      ],
      [
        "▁má",
        -10.38913458718841
      ],
      [
        "▁Châu",
        -10.38988496089193
      ],
      [
        "▁mặt_tiền",
        -10.389938333744382
      ],
      [
        "▁bình_tĩnh",
        -10.390234845392625
      ],
      [
        "_viện",
        -10.390450863548446
      ],
      [
        "Ở",
        -10.390790196932707
      ],
      [
        "▁tràn",
        -10.391548178267694
      ],
      [
        "▁Hương",
        -10.391713778467343
      ],
      [
        "Du_học",
        -10.391826394054393
      ],
      [
        "_bì",
        -10.39184516178189
      ],
      [
        "âm_đạo",
        -10.39202706143395
      ],
      [
        "▁Cố",
        -10.392131167816322
      ],
      [
        "trực_thuộc",
        -10.392312576409848
      ],
      [
        "▁đặt_hàng",
        -10.393024659250129
      ],
      [
        "▁Lão",
        -10.394243343041191
      ],
      [
        "▁giáo",
        -10.394622277572134
      ],
      [
        "▁cải_cách",
        -10.395281522265424
      ],
      [
        "▁thực_vật",
        -10.395511693263016
      ],
      [
        "▁Giúp",
        -10.395634202748273
      ],
      [
        "▁tín_hiệu",
        -10.395799651547856
      ],
      [
        "▁dàn",
        -10.395987824334084
      ],
      [
        "Đống_Đa",
        -10.396166043331483
      ],
      [
        "▁đói",
        -10.396873614449085
      ],
      [
        "_đấu",
        -10.397097329359232
      ],
      [
        "▁dân_sự",
        -10.397422524475235
      ],
      [
        "lùi",
        -10.397574824383216
      ],
      [
        "▁đích",
        -10.39762788418964
      ],
      [
        "▁Khoa_Học",
        -10.397878836209165
      ],
      [
        "ÊN",
[...]
